<unk>	0
<s>	0
</s>	0
<pad>	0
▁t	-0
he	-1
▁a	-2
on	-3
in	-4
▁the	-5
ti	-6
re	-7
▁o	-8
en	-9
er	-10
▁of	-11
tion	-12
nd	-13
or	-14
es	-15
al	-16
▁s	-17
▁p	-18
▁c	-19
ed	-20
▁in	-21
it	-22
▁and	-23
at	-24
is	-25
an	-26
ation	-27
▁w	-28
ing	-29
▁f	-30
▁to	-31
ar	-32
ent	-33
ro	-34
▁re	-35
▁b	-36
ic	-37
▁d	-38
ec	-39
▁m	-40
ou	-41
om	-42
le	-43
ment	-44
ve	-45
as	-46
▁th	-47
▁C	-48
il	-49
ce	-50
▁S	-51
▁e	-52
▁h	-53
ra	-54
▁T	-55
20	-56
▁for	-57
▁A	-58
▁n	-59
▁pro	-60
si	-61
ri	-62
st	-63
ol	-64
▁on	-65
▁con	-66
▁1	-67
▁I	-68
lo	-69
▁be	-70
ly	-71
▁(	-72
ur	-73
▁that	-74
ter	-75
ts	-76
im	-77
se	-78
▁The	-79
ations	-80
▁as	-81
200	-82
ul	-83
▁de	-84
te	-85
ate	-86
omm	-87
ver	-88
vi	-89
▁P	-90
▁g	-91
ith	-92
por	-93
ity	-94
gh	-95
▁with	-96
▁su	-97
▁it	-98
▁U	-99
▁l	-100
res	-101
▁"	-102
▁M	-103
▁u	-104
▁is	-105
ac	-106
et	-107
ir	-108
ab	-109
▁ac	-110
ad	-111
▁N	-112
ff	-113
▁by	-114
tic	-115
oun	-116
▁st	-117
ld	-118
▁al	-119
um	-120
port	-121
▁R	-122
ational	-123
▁G	-124
th	-125
ers	-126
▁or	-127
em	-128
▁ex	-129
▁res	-130
sion	-131
ial	-132
qu	-133
▁D	-134
▁par	-135
ion	-136
her	-137
ud	-138
ain	-139
end	-140
ted	-141
▁an	-142
ren	-143
uc	-144
ge	-145
▁In	-146
▁2	-147
ess	-148
oc	-149
op	-150
国家	-151
▁im	-152
ties	-153
id	-154
tive	-155
iz	-156
▁E	-157
▁we	-158
▁no	-159
▁wh	-160
委员	-161
▁en	-162
委员会	-163
▁ad	-164
▁St	-165
ist	-166
▁at	-167
ary	-168
▁F	-169
un	-170
ut	-171
▁Un	-172
▁are	-173
▁O	-174
ited	-175
ance	-176
lop	-177
velop	-178
▁200	-179
tern	-180
▁inc	-181
▁its	-182
▁Comm	-183
会议	-184
ould	-185
ther	-186
联合	-187
am	-188
ount	-189
pp	-190
ew	-191
us	-192
and	-193
ated	-194
pec	-195
▁3	-196
ig	-197
201	-198
ution	-199
工作	-200
our	-201
ork	-202
问题	-203
▁was	-204
od	-205
ak	-206
▁B	-207
ure	-208
over	-209
gra	-210
▁imp	-211
▁United	-212
▁H	-213
▁cont	-214
ill	-215
ber	-216
▁le	-217
rom	-218
ay	-219
ch	-220
国际	-221
est	-222
rou	-223
▁W	-224
ven	-225
for	-226
99	-227
报告	-228
eral	-229
ates	-230
ore	-231
ments	-232
联合国	-233
▁com	-234
▁from	-235
发展	-236
el	-237
▁develop	-238
ternational	-239
ep	-240
▁reg	-241
ies	-242
▁ag	-243
▁sh	-244
ip	-245
lic	-246
▁Nations	-247
if	-248
▁Con	-249
ard	-250
▁me	-251
▁'	-252
ap	-253
▁ch	-254
ich	-255
form	-256
组织	-257
igh	-258
ant	-259
red	-260
os	-261
▁rec	-262
▁which	-263
eneral	-264
▁dis	-265
▁not	-266
▁he	-267
▁ha	-268
▁app	-269
▁per	-270
▁count	-271
▁4	-272
vid	-273
提供	-274
▁v	-275
overn	-276
▁comm	-277
lud	-278
itte	-279
uman	-280
able	-281
▁their	-282
▁comp	-283
ission	-284
▁5	-285
ittee	-286
ect	-287
ces	-288
政府	-289
▁ri	-290
nder	-291
▁co	-292
mm	-293
all	-294
▁L	-295
关于	-296
▁have	-297
min	-298
sid	-299
▁righ	-300
ran	-301
per	-302
ub	-303
lement	-304
ow	-305
▁Committee	-306
▁has	-307
▁Sec	-308
gan	-309
).	-310
▁acc	-311
ia	-312
以及	-313
ord	-314
方面	-315
▁includ	-316
▁work	-317
ence	-318
tions	-319
ress	-320
pport	-321
ust	-322
ty	-323
▁在	-324
▁States	-325
▁eff	-326
▁-	-327
▁ar	-328
▁under	-329
ous	-330
▁international	-331
ision	-332
▁all	-333
ild	-334
so	-335
▁pre	-336
ice	-337
社会	-338
▁ne	-339
包括	-340
ace	-341
▁report	-342
▁J	-343
gramm	-344
age	-345
▁6	-346
▁pol	-347
▁As	-348
ries	-349
ganiz	-350
一个	-351
erv	-352
ities	-353
▁this	-354
duc	-355
iv	-356
▁other	-357
机构	-358
▁been	-359
▁y	-360
方案	-361
▁sub	-362
▁also	-363
▁had	-364
ll	-365
low	-366
▁ass	-367
行动	-368
进行	-369
00	-370
情况	-371
执行	-372
omen	-373
这些	-374
▁provid	-375
ret	-376
其他	-377
▁pl	-378
通过	-379
su	-380
di	-381
特别	-382
resent	-383
olution	-384
▁UN	-385
▁r	-386
tit	-387
overnment	-388
▁requ	-389
▁were	-390
人权	-391
▁201	-392
代表	-393
▁sec	-394
og	-395
妇女	-396
▁implement	-397
),	-398
▁pe	-399
ari	-400
ry	-401
▁will	-402
▁human	-403
▁partic	-404
▁development	-405
ult	-406
ech	-407
▁tra	-408
ms	-409
eration	-410
ie	-411
aw	-412
▁rights	-413
▁countries	-414
▁Pro	-415
ublic	-416
anc	-417
pon	-418
有关	-419
▁dec	-420
▁j	-421
▁ab	-422
▁po	-423
cil	-424
ical	-425
ome	-426
▁support	-427
▁vi	-428
秘书	-429
安全	-430
eren	-431
公约	-432
▁inform	-433
ric	-434
▁un	-435
ign	-436
▁se	-437
▁should	-438
▁man	-439
人员	-440
我们	-441
urity	-442
▁conc	-443
活动	-444
决议	-445
▁Coun	-446
▁rel	-447
ative	-448
hen	-449
经济	-450
ves	-451
▁int	-452
▁7	-453
onom	-454
vention	-455
▁199	-456
ear	-457
▁proc	-458
ual	-459
▁would	-460
ct	-461
1.	-462
mb	-463
▁exp	-464
pecial	-465
▁Council	-466
▁resolution	-467
roup	-468
ire	-469
建议	-470
ures	-471
199	-472
所有	-473
ree	-474
ong	-475
rib	-476
▁fin	-477
▁programm	-478
ges	-479
ph	-480
合作	-481
▁Ch	-482
▁women	-483
▁cons	-484
8.	-485
ble	-486
ession	-487
yst	-488
▁including	-489
▁national	-490
ors	-491
▁organiz	-492
erson	-493
ue	-494
ystem	-495
ase	-496
ish	-497
ose	-498
ating	-499
2.	-500
eting	-501
▁ob	-502
ke	-503
▁out	-504
abl	-505
ility	-506
fic	-507
缔约	-508
区域	-509
9.	-510
儿童	-511
大会	-512
ular	-513
项目	-514
理事	-515
3.	-516
ru	-517
ast	-518
und	-519
▁such	-520
reat	-521
▁rep	-522
▁tak	-523
vel	-524
▁ind	-525
▁Secret	-526
enti	-527
规定	-528
enc	-529
▁issu	-530
根据	-531
▁State	-532
理事会	-533
rough	-534
4.	-535
ati	-536
ine	-537
0.	-538
ern	-539
管理	-540
tical	-541
▁system	-542
iti	-543
feren	-544
▁appro	-545
ory	-546
▁Re	-547
ember	-548
5.	-549
▁region	-550
法律	-551
计划	-552
权利	-553
▁It	-554
▁cent	-555
▁need	-556
技术	-557
▁K	-558
▁information	-559
▁Th	-560
▁tran	-561
采取	-562
onomic	-563
semb	-564
▁Commission	-565
▁soc	-566
mo	-567
支持	-568
▁law	-569
ade	-570
6.	-571
sembly	-572
措施	-573
这一	-574
ection	-575
▁consid	-576
10	-577
▁contin	-578
▁child	-579
▁meeting	-580
▁Assembly	-581
▁acti	-582
▁fac	-583
rac	-584
▁General	-585
7.	-586
提出	-587
stit	-588
▁person	-589
out	-590
echn	-591
12	-592
▁am	-593
▁lo	-594
▁implementation	-595
需要	-596
we	-597
ommend	-598
establ	-599
▁leg	-600
ting	-601
▁session	-602
▁--	-603
ased	-604
▁bet	-605
政策	-606
▁establ	-607
hed	-608
▁em	-609
决定	-610
ainst	-611
▁inv	-612
▁ec	-613
▁commun	-614
可能	-615
ten	-616
▁serv	-617
▁Government	-618
▁Af	-619
▁Convention	-620
uring	-621
▁str	-622
ference	-623
graph	-624
▁Rep	-625
系统	-626
▁through	-627
▁ter	-628
▁there	-629
les	-630
ail	-631
▁recommend	-632
vities	-633
ific	-634
ach	-635
▁De	-636
没有	-637
保护	-638
▁respon	-639
▁pri	-640
▁trans	-641
▁mo	-642
General	-643
和平	-644
▁concern	-645
▁polic	-646
▁disc	-647
资源	-648
▁year	-649
▁more	-650
▁inter	-651
▁activities	-652
促进	-653
服务	-654
加强	-655
rimin	-656
ag	-657
ian	-658
▁over	-659
主义	-660
get	-661
pos	-662
重要	-663
▁meas	-664
ft	-665
影响	-666
▁Secretary	-667
▁made	-668
秘书长	-669
基金	-670
成员	-671
view	-672
▁para	-673
cc	-674
ollow	-675
▁against	-676
ron	-677
▁dra	-678
行为	-679
继续	-680
▁Dec	-681
▁8	-682
▁International	-683
▁part	-684
世界	-685
vision	-686
目标	-687
必须	-688
ources	-689
▁Par	-690
air	-691
uth	-692
▁incre	-693
dition	-694
确保	-695
▁into	-696
▁particular	-697
li	-698
ices	-699
ween	-700
提交	-701
▁cap	-702
▁prot	-703
pe	-704
operation	-705
ective	-706
▁qu	-707
▁ens	-708
stitution	-709
▁techn	-710
他们	-711
▁ref	-712
ateg	-713
mit	-714
▁level	-715
ticle	-716
要求	-717
orld	-718
are	-719
▁new	-720
▁those	-721
▁process	-722
努力	-723
教育	-724
ural	-725
▁financ	-726
▁between	-727
能力	-728
▁assist	-729
▁adop	-730
19	-731
▁effor	-732
▁viol	-733
信息	-734
▁well	-735
uthor	-736
aff	-737
tain	-738
▁V	-739
环境	-740
▁add	-741
ffic	-742
olog	-743
▁cl	-744
agement	-745
bers	-746
▁inte	-747
缔约国	-748
▁19	-749
leg	-750
▁country	-751
als	-752
ved	-753
▁follow	-754
▁peop	-755
▁regard	-756
alth	-757
ilit	-758
▁Ad	-759
▁ro	-760
▁di	-761
▁they	-762
urther	-763
▁Develop	-764
援助	-765
hip	-766
ex	-767
部门	-768
me	-769
号决议	-770
lear	-771
▁import	-772
主席	-773
▁measures	-774
bal	-775
/6	-776
▁plan	-777
全球	-778
美元	-779
▁Afric	-780
协调	-781
iod	-782
认为	-783
ile	-784
▁one	-785
);	-786
ood	-787
▁oper	-788
▁num	-789
▁tim	-790
▁security	-791
11	-792
der	-793
▁can	-794
▁9	-795
▁el	-796
ration	-797
▁peace	-798
▁ra	-799
▁represent	-800
▁organizations	-801
▁tw	-802
注意	-803
ized	-804
建立	-805
/2	-806
ism	-807
▁particip	-808
ving	-809
embers	-810
▁any	-811
inc	-812
ris	-813
的一	-814
ining	-815
▁children	-816
审查	-817
▁paragraph	-818
作为	-819
▁promo	-820
▁so	-821
期间	-822
▁decision	-823
战略	-824
▁author	-825
▁mon	-826
▁No	-827
参与	-828
▁who	-829
▁whe	-830
educ	-831
ack	-832
ights	-833
▁equ	-834
▁efforts	-835
ters	-836
届会议	-837
au	-838
▁fund	-839
uation	-840
de	-841
▁them	-842
开展	-843
和国	-844
▁cooperation	-845
▁group	-846
▁public	-847
lobal	-848
主要	-849
▁programme	-850
▁这	-851
▁period	-852
▁Pre	-853
举行	-854
任何	-855
vis	-856
使用	-857
审议	-858
实现	-859
▁.	-860
实施	-861
▁resources	-862
可以	-863
sive	-864
med	-865
▁conf	-866
rit	-867
▁non	-868
▁use	-869
ality	-870
▁provision	-871
/5	-872
ards	-873
研究	-874
▁ful	-875
▁Republic	-876
▁address	-877
▁regional	-878
草案	-879
▁委员会	-880
loy	-881
持续	-882
文件	-883
▁rele	-884
ruc	-885
▁10	-886
ied	-887
▁Development	-888
rent	-889
fore	-890
jec	-891
▁Rights	-892
go	-893
各国	-894
▁sit	-895
共和国	-896
部分	-897
art	-898
led	-899
ake	-900
▁Conference	-901
▁his	-902
▁For	-903
▁these	-904
▁us	-905
相关	-906
非洲	-907
▁sa	-908
事务	-909
ens	-910
▁ensure	-911
▁review	-912
ight	-913
▁number	-914
ency	-915
▁li	-916
man	-917
▁Security	-918
ond	-919
▁mat	-920
ally	-921
▁educ	-922
▁k	-923
▁propos	-924
15	-925
▁up	-926
▁than	-927
▁issues	-928
武器	-929
▁financial	-930
ivil	-931
ordin	-932
▁sc	-933
▁economic	-934
▁members	-935
vant	-936
因此	-937
政治	-938
sible	-939
▁draft	-940
ide	-941
领域	-942
▁provide	-943
▁Group	-944
▁social	-945
ene	-946
▁services	-947
地区	-948
的工作	-949
▁Human	-950
▁2.	-951
vent	-952
▁offic	-953
itical	-954
ject	-955
ization	-956
增加	-957
int	-958
小组	-959
之间	-960
ons	-961
sts	-962
viron	-963
▁contrib	-964
▁present	-965
ploy	-966
▁des	-967
▁time	-968
tice	-969
▁respec	-970
ability	-971
解决	-972
irst	-973
考虑	-974
支助	-975
预算	-976
ot	-977
▁assistance	-978
ful	-979
讨论	-980
▁order	-981
指出	-982
有效	-983
reng	-984
▁Ex	-985
▁Off	-986
的报告	-987
ished	-988
ame	-989
vironment	-990
000	-991
▁may	-992
▁but	-993
ks	-994
▁people	-995
作出	-996
▁1.	-997
▁gu	-998
up	-999
uild	-1000
▁exper	-1001
▁pur	-1002
▁could	-1003
ports	-1004
▁health	-1005
▁further	-1006
一些	-1007
▁some	-1008
培训	-1009
▁Min	-1010
▁form	-1011
▁do	-1012
ute	-1013
▁Co	-1014
▁provided	-1015
▁set	-1016
arm	-1017
very	-1018
▁institution	-1019
▁Or	-1020
▁Office	-1021
关系	-1022
其中	-1023
atives	-1024
▁bo	-1025
▁Is	-1026
▁impro	-1027
方面的	-1028
▁bas	-1029
then	-1030
▁off	-1031
▁two	-1032
▁capac	-1033
ety	-1034
▁accord	-1035
rengthen	-1036
ocu	-1037
▁addition	-1038
▁staff	-1039
udget	-1040
人民	-1041
特派	-1042
程序	-1043
▁management	-1044
▁Special	-1045
vers	-1046
▁developing	-1047
▁programmes	-1048
ases	-1049
▁He	-1050
30	-1051
▁right	-1052
斯坦	-1053
▁main	-1054
▁strateg	-1055
▁article	-1056
▁This	-1057
ction	-1058
特派团	-1059
▁Ar	-1060
ium	-1061
▁ann	-1062
获得	-1063
ever	-1064
▁establish	-1065
▁areas	-1066
oll	-1067
▁cur	-1068
▁mar	-1069
▁commit	-1070
作用	-1071
▁Mr	-1072
▁prac	-1073
▁sp	-1074
▁effective	-1075
▁within	-1076
因为	-1077
▁$	-1078
pri	-1079
▁continu	-1080
sident	-1081
特别是	-1082
先生	-1083
ender	-1084
得到	-1085
▁special	-1086
hie	-1087
uro	-1088
▁min	-1089
第二	-1090
人口	-1091
ilities	-1092
中心	-1093
▁achie	-1094
erg	-1095
调查	-1096
enn	-1097
act	-1098
▁policy	-1099
▁pos	-1100
犯罪	-1101
ort	-1102
▁party	-1103
▁end	-1104
▁At	-1105
▁relevant	-1106
mber	-1107
old	-1108
▁education	-1109
ning	-1110
ners	-1111
机制	-1112
▁view	-1113
平等	-1114
代表团	-1115
king	-1116
par	-1117
ption	-1118
▁during	-1119
▁only	-1120
▁persons	-1121
ive	-1122
表示	-1123
暴力	-1124
▁On	-1125
ered	-1126
已经	-1127
▁rem	-1128
▁3.	-1129
司法	-1130
ected	-1131
提高	-1132
▁pr	-1133
条约	-1134
minist	-1135
▁docu	-1136
▁global	-1137
贸易	-1138
its	-1139
ral	-1140
的是	-1141
▁years	-1142
▁state	-1143
一步	-1144
ang	-1145
▁initi	-1146
秘书处	-1147
▁strengthen	-1148
基础	-1149
omes	-1150
ariat	-1151
▁civil	-1152
▁An	-1153
▁20	-1154
意见	-1155
amp	-1156
注意到	-1157
val	-1158
▁我们	-1159
rol	-1160
reed	-1161
ince	-1162
illion	-1163
▁high	-1164
ib	-1165
▁political	-1166
专家	-1167
▁ext	-1168
gress	-1169
▁held	-1170
制定	-1171
▁We	-1172
发展中	-1173
one	-1174
arch	-1175
数据	-1176
框架	-1177
ulation	-1178
这种	-1179
gramme	-1180
▁training	-1181
incip	-1182
▁loc	-1183
▁about	-1184
sib	-1185
▁produc	-1186
ector	-1187
▁account	-1188
▁Organiz	-1189
▁12	-1190
.1	-1191
outh	-1192
tim	-1193
▁es	-1194
▁legal	-1195
▁15	-1196
land	-1197
歧视	-1198
法院	-1199
评估	-1200
▁inst	-1201
▁Euro	-1202
ound	-1203
▁sign	-1204
ram	-1205
ys	-1206
任务	-1207
▁protection	-1208
▁bec	-1209
lu	-1210
进一步	-1211
安全理事会	-1212
人的	-1213
▁take	-1214
资料	-1215
▁capacity	-1216
处理	-1217
▁must	-1218
ings	-1219
▁spec	-1220
▁access	-1221
一项	-1222
可持续	-1223
标准	-1224
/1	-1225
伙伴	-1226
行政	-1227
原则	-1228
取得	-1229
的国家	-1230
▁av	-1231
发言	-1232
▁11	-1233
▁En	-1234
ange	-1235
uclear	-1236
til	-1237
发展中国家	-1238
确定	-1239
ework	-1240
▁为	-1241
减少	-1242
家庭	-1243
的情况	-1244
▁where	-1245
ramework	-1246
ass	-1247
中的	-1248
强调	-1249
进程	-1250
▁adopted	-1251
▁action	-1252
▁world	-1253
ise	-1254
共同	-1255
▁environment	-1256
ines	-1257
必要	-1258
▁Y	-1259
能够	-1260
stain	-1261
工作组	-1262
▁deleg	-1263
enda	-1264
正在	-1265
stan	-1266
irect	-1267
▁aff	-1268
ily	-1269
问题的	-1270
▁cri	-1271
now	-1272
▁first	-1273
▁require	-1274
▁Al	-1275
工作人员	-1276
目前	-1277
▁Europe	-1278
ield	-1279
及其	-1280
▁sustain	-1281
▁op	-1282
▁submit	-1283
▁being	-1284
欧洲	-1285
▁budget	-1286
identi	-1287
由于	-1288
ourt	-1289
uilding	-1290
咨询	-1291
▁community	-1292
echan	-1293
▁Bo	-1294
pt	-1295
缔约方	-1296
▁reques	-1297
议程	-1298
如果	-1299
冲突	-1300
▁4.	-1301
ss	-1302
开发	-1303
oint	-1304
参加	-1305
▁parties	-1306
ix	-1307
▁coordin	-1308
▁most	-1309
同时	-1310
▁current	-1311
的问题	-1312
sition	-1313
以便	-1314
▁dem	-1315
▁President	-1316
ament	-1317
和其他	-1318
▁def	-1319
itor	-1320
▁discus	-1321
部队	-1322
▁此	-1323
利用	-1324
ans	-1325
▁our	-1326
▁among	-1327
联盟	-1328
▁Ag	-1329
owever	-1330
▁该	-1331
aj	-1332
▁assess	-1333
▁recommendations	-1334
▁continue	-1335
▁Ind	-1336
▁rece	-1337
▁gender	-1338
▁remain	-1339
制度	-1340
说明	-1341
ror	-1342
▁following	-1343
▁Programme	-1344
▁taken	-1345
row	-1346
▁,	-1347
ok	-1348
xt	-1349
ite	-1350
方式	-1351
ecess	-1352
各种	-1353
ared	-1354
▁Le	-1355
▁第	-1356
▁dat	-1357
▁December	-1358
▁indic	-1359
▁prior	-1360
▁respect	-1361
用于	-1362
▁agree	-1363
▁13	-1364
▁Prot	-1365
▁stand	-1366
▁violence	-1367
责任	-1368
具体	-1369
▁Member	-1370
它们	-1371
▁princip	-1372
▁Organization	-1373
oura	-1374
▁bod	-1375
▁att	-1376
▁proced	-1377
建设	-1378
▁situation	-1379
1,	-1380
自由	-1381
▁progress	-1382
人道	-1383
▁accordance	-1384
▁important	-1385
isl	-1386
2005	-1387
会员	-1388
▁related	-1389
round	-1390
▁established	-1391
▁identi	-1392
▁if	-1393
办法	-1394
办事	-1395
全面	-1396
文化	-1397
ays	-1398
▁mand	-1399
ogn	-1400
次会议	-1401
高级	-1402
▁Work	-1403
▁integ	-1404
ology	-1405
▁appropri	-1406
tention	-1407
性别	-1408
▁lead	-1409
费用	-1410
▁both	-1411
▁role	-1412
ired	-1413
▁reports	-1414
riminal	-1415
办事处	-1416
▁med	-1417
利亚	-1418
会员国	-1419
机会	-1420
范围	-1421
▁coll	-1422
aking	-1423
▁Pe	-1424
arian	-1425
充分	-1426
▁Ec	-1427
▁technical	-1428
▁14	-1429
▁Am	-1430
▁contain	-1431
▁necess	-1432
▁general	-1433
▁consult	-1434
overnmental	-1435
进展	-1436
▁soci	-1437
难民	-1438
▁National	-1439
▁ur	-1440
许多	-1441
▁ent	-1442
▁但	-1443
▁mechan	-1444
新的	-1445
▁Soc	-1446
▁enc	-1447
▁framework	-1448
▁car	-1449
ustice	-1450
▁million	-1451
消除	-1452
ents	-1453
une	-1454
ined	-1455
设立	-1456
ough	-1457
3,	-1458
ner	-1459
公共	-1460
▁call	-1461
▁when	-1462
▁Parties	-1463
美国	-1464
▁5.	-1465
ential	-1466
▁Africa	-1467
ants	-1468
适当	-1469
ivers	-1470
pl	-1471
rimination	-1472
ID	-1473
ended	-1474
▁shall	-1475
▁fact	-1476
▁consider	-1477
▁legisl	-1478
ious	-1479
▁我	-1480
▁mission	-1481
▁many	-1482
vement	-1483
▁invol	-1484
维持	-1485
ug	-1486
▁institutions	-1487
▁working	-1488
▁partners	-1489
▁foc	-1490
▁此外	-1491
滋病	-1492
erc	-1493
恐怖	-1494
▁Dep	-1495
各项	-1496
▁cases	-1497
ultural	-1498
keep	-1499
基本	-1500
▁cre	-1501
做法	-1502
议定	-1503
艾滋病	-1504
ize	-1505
方法	-1506
▁avail	-1507
民主	-1508
▁applic	-1509
▁policies	-1510
▁关于	-1511
14	-1512
承诺	-1513
2,	-1514
▁Cent	-1515
ina	-1516
▁nuclear	-1517
18	-1518
▁item	-1519
▁inf	-1520
2009	-1521
▁groups	-1522
▁go	-1523
ennium	-1524
▁Board	-1525
allen	-1526
资金	-1527
负责	-1528
▁pop	-1529
▁vari	-1530
▁conflic	-1531
ater	-1532
▁basis	-1533
2006	-1534
按照	-1535
▁To	-1536
条件	-1537
协助	-1538
▁ow	-1539
▁2008	-1540
▁fam	-1541
投资	-1542
ition	-1543
lar	-1544
13	-1545
eth	-1546
▁appropriate	-1547
▁因此	-1548
▁June	-1549
ployment	-1550
义务	-1551
的人	-1552
lig	-1553
而且	-1554
▁jud	-1555
▁18	-1556
▁comple	-1557
存在	-1558
▁ques	-1559
▁fore	-1560
▁same	-1561
encies	-1562
▁World	-1563
▁indi	-1564
ajor	-1565
itarian	-1566
16	-1567
▁data	-1568
监测	-1569
的第	-1570
议定书	-1571
▁treat	-1572
▁occ	-1573
2004	-1574
2008	-1575
尼亚	-1576
▁conduc	-1577
▁African	-1578
▁three	-1579
▁Govern	-1580
ause	-1581
▁document	-1582
▁agenda	-1583
▁make	-1584
sel	-1585
▁adv	-1586
aim	-1587
2010	-1588
▁express	-1589
▁II	-1590
▁local	-1591
人道主义	-1592
▁reduc	-1593
jects	-1594
办公	-1595
airs	-1596
严重	-1597
▁diff	-1598
▁2010	-1599
▁16	-1600
▁ser	-1601
sibility	-1602
2007	-1603
▁necessary	-1604
▁since	-1605
iation	-1606
▁[	-1607
▁Fund	-1608
▁bene	-1609
eric	-1610
▁recogn	-1611
▁act	-1612
造成	-1613
▁Social	-1614
▁Dis	-1615
▁challen	-1616
▁aw	-1617
不同	-1618
鼓励	-1619
接受	-1620
设施	-1621
▁6.	-1622
时间	-1623
▁field	-1624
▁ris	-1625
apons	-1626
arge	-1627
aren	-1628
开始	-1629
▁case	-1630
uly	-1631
ocol	-1632
▁increase	-1633
▁full	-1634
▁major	-1635
ages	-1636
ilitary	-1637
受到	-1638
▁2006	-1639
▁sector	-1640
▁oblig	-1641
▁Economic	-1642
具有	-1643
发生	-1644
▁stud	-1645
▁ste	-1646
涉及	-1647
▁exist	-1648
ost	-1649
▁before	-1650
▁meetings	-1651
ister	-1652
▁provisions	-1653
▁Pol	-1654
以色	-1655
以色列	-1656
7,	-1657
▁noted	-1658
▁enh	-1659
25	-1660
▁monitor	-1661
▁needs	-1662
ned	-1663
vidual	-1664
overty	-1665
▁Reg	-1666
▁trade	-1667
生产	-1668
▁focus	-1669
ban	-1670
▁2005	-1671
应当	-1672
▁possible	-1673
IC	-1674
ently	-1675
rest	-1676
尤其	-1677
ged	-1678
预防	-1679
协定	-1680
▁include	-1681
这个	-1682
结果	-1683
▁guid	-1684
非政府	-1685
是否	-1686
▁Pal	-1687
▁result	-1688
rab	-1689
2011	-1690
▁contribution	-1691
生活	-1692
ecu	-1693
▁<	-1694
▁proposed	-1695
改革	-1696
▁know	-1697
tig	-1698
4,	-1699
▁30	-1700
anding	-1701
武装	-1702
▁society	-1703
ules	-1704
governmental	-1705
pr	-1706
▁mod	-1707
mp	-1708
▁联合国	-1709
gin	-1710
epend	-1711
巴勒	-1712
atis	-1713
▁differen	-1714
▁developed	-1715
有关的	-1716
正式	-1717
▁proble	-1718
▁individual	-1719
▁communic	-1720
DP	-1721
rael	-1722
▁cor	-1723
▁对	-1724
产生	-1725
▁grow	-1726
公司	-1727
巴勒斯坦	-1728
fter	-1729
法庭	-1730
形式	-1731
▁bi	-1732
sions	-1733
▁sustainable	-1734
artment	-1735
2000	-1736
当局	-1737
▁based	-1738
▁encoura	-1739
挑战	-1740
▁European	-1741
▁Court	-1742
▁administ	-1743
ool	-1744
▁Working	-1745
▁conte	-1746
独立	-1747
▁根据	-1748
▁dist	-1749
2003	-1750
ale	-1751
▁的	-1752
▁July	-1753
附件	-1754
▁consideration	-1755
2001	-1756
规划	-1757
▁issue	-1758
ateral	-1759
atory	-1760
▁while	-1761
sh	-1762
ital	-1763
▁area	-1764
年的	-1765
国内	-1766
办公室	-1767
▁without	-1768
nel	-1769
▁Israel	-1770
roduc	-1771
▁mul	-1772
ird	-1773
fy	-1774
rug	-1775
▁said	-1776
成果	-1777
▁aim	-1778
pportun	-1779
▁tow	-1780
▁Women	-1781
ture	-1782
变化	-1783
chool	-1784
▁Serv	-1785
▁Palest	-1786
▁2009	-1787
▁terror	-1788
▁te	-1789
监督	-1790
▁obs	-1791
atus	-1792
▁specific	-1793
▁official	-1794
大会第	-1795
▁available	-1796
▁you	-1797
fication	-1798
提出的	-1799
▁concerned	-1800
▁ph	-1801
▁17	-1802
sec	-1803
range	-1804
利益	-1805
之间的	-1806
▁wel	-1807
fied	-1808
认识	-1809
▁long	-1810
tal	-1811
▁participation	-1812
优先	-1813
立法	-1814
▁project	-1815
keeping	-1816
土著	-1817
分析	-1818
▁promote	-1819
▁particularly	-1820
批准	-1821
▁place	-1822
地位	-1823
以下	-1824
▁这些	-1825
laration	-1826
▁men	-1827
非政府组织	-1828
卫生	-1829
▁claim	-1830
刑事	-1831
▁Union	-1832
▁levels	-1833
谈判	-1834
▁great	-1835
积极	-1836
▁7.	-1837
vate	-1838
▁val	-1839
地方	-1840
▁receiv	-1841
最后	-1842
▁Americ	-1843
欢迎	-1844
ences	-1845
事项	-1846
报告员	-1847
imin	-1848
成为	-1849
▁like	-1850
一次	-1851
ced	-1852
例如	-1853
关切	-1854
▁poverty	-1855
17	-1856
国家的	-1857
ind	-1858
ators	-1859
▁clo	-1860
key	-1861
阿拉	-1862
选举	-1863
▁six	-1864
rehen	-1865
案件	-1866
▁fun	-1867
规则	-1868
▁resul	-1869
健康	-1870
社区	-1871
ternal	-1872
ked	-1873
2002	-1874
▁:	-1875
▁Res	-1876
决议草案	-1877
▁benef	-1878
▁control	-1879
teur	-1880
日至	-1881
iven	-1882
▁considered	-1883
尽管	-1884
▁military	-1885
porteur	-1886
vestig	-1887
▁facilit	-1888
ross	-1889
imate	-1890
abor	-1891
▁importance	-1892
▁after	-1893
▁Mission	-1894
▁govern	-1895
▁opportun	-1896
▁required	-1897
▁bodies	-1898
种族	-1899
,000	-1900
▁each	-1901
▁humanitarian	-1902
rehensive	-1903
▁authorities	-1904
▁Ass	-1905
see	-1906
▁sel	-1907
业务	-1908
▁Law	-1909
▁submitted	-1910
▁delegation	-1911
并且	-1912
50	-1913
▁Pl	-1914
▁nat	-1915
▁vic	-1916
ove	-1917
安排	-1918
▁requirements	-1919
▁undert	-1920
▁used	-1921
ient	-1922
▁see	-1923
▁Secretariat	-1924
irc	-1925
equ	-1926
visory	-1927
▁lim	-1928
▁Rec	-1929
实际	-1930
▁sex	-1931
ditions	-1932
ov	-1933
▁various	-1934
一般	-1935
enous	-1936
希望	-1937
禁止	-1938
uture	-1939
com	-1940
▁Wh	-1941
▁Action	-1942
rative	-1943
▁*	-1944
ower	-1945
ah	-1946
/3	-1947
▁hel	-1948
帮助	-1949
残疾	-1950
协商	-1951
▁Protocol	-1952
性的	-1953
履行	-1954
▁conflict	-1955
军事	-1956
宣言	-1957
▁second	-1958
igenous	-1959
uch	-1960
▁Act	-1961
▁2000	-1962
个人	-1963
istry	-1964
▁comb	-1965
日第	-1966
▁upon	-1967
ecutive	-1968
):	-1969
ience	-1970
▁8.	-1971
▁There	-1972
受害	-1973
▁projects	-1974
1999	-1975
▁good	-1976
▁Department	-1977
恐怖主义	-1978
▁Tra	-1979
阿拉伯	-1980
委员会的	-1981
▁operations	-1982
改善	-1983
的权利	-1984
loc	-1985
两年	-1986
uge	-1987
▁help	-1988
armament	-1989
▁cour	-1990
ule	-1991
▁Man	-1992
▁signific	-1993
状况	-1994
应该	-1995
▁agencies	-1996
▁他	-1997
sequ	-1998
如何	-1999
TA	-2000
building	-2001
▁invest	-2002
警察	-2003
av	-2004
alf	-2005
▁requested	-2006
termin	-2007
▁deli	-2008
▁Arab	-2009
收入	-2010
审计	-2011
▁allow	-2012
▁request	-2013
▁additional	-2014
一致	-2015
▁approach	-2016
hes	-2017
▁context	-2018
CO	-2019
▁future	-2020
市场	-2021
完成	-2022
▁beh	-2023
企业	-2024
▁deb	-2025
mall	-2026
apporteur	-2027
增长	-2028
▁land	-2029
▁Chair	-2030
保障	-2031
▁population	-2032
▁dep	-2033
▁continued	-2034
打击	-2035
ceed	-2036
rated	-2037
▁saf	-2038
▁May	-2039
关注	-2040
▁reform	-2041
▁anal	-2042
erman	-2043
▁Sep	-2044
国际社会	-2045
▁Aff	-2046
▁Fin	-2047
▁care	-2048
▁her	-2049
2012	-2050
第三	-2051
▁supp	-2052
▁weapons	-2053
综合	-2054
领土	-2055
▁ear	-2056
▁Governments	-2057
▁::	-2058
▁South	-2059
omestic	-2060
▁sur	-2061
tember	-2062
▁impact	-2063
现有	-2064
▁improve	-2065
金融	-2066
ness	-2067
特别报告员	-2068
内的	-2069
领导	-2070
reg	-2071
▁econom	-2072
国的	-2073
ober	-2074
以来	-2075
ruction	-2076
ife	-2077
▁Rapporteur	-2078
▁rest	-2079
▁school	-2080
tics	-2081
▁Gu	-2082
tices	-2083
▁post	-2084
ank	-2085
read	-2086
▁September	-2087
指导	-2088
▁private	-2089
▁police	-2090
这方面	-2091
限制	-2092
▁9.	-2093
▁pursu	-2094
▁New	-2095
▁agreed	-2096
▁However	-2097
公民	-2098
▁change	-2099
▁enti	-2100
▁mandate	-2101
部长	-2102
/4	-2103
财政	-2104
.2	-2105
iness	-2106
▁clear	-2107
▁reporting	-2108
▁High	-2109
风险	-2110
▁Acc	-2111
▁note	-2112
防止	-2113
▁investig	-2114
▁significant	-2115
表明	-2116
asing	-2117
仍然	-2118
come	-2119
针对	-2120
▁prevent	-2121
不是	-2122
纳入	-2123
更多	-2124
inian	-2125
▁prepar	-2126
临时	-2127
一种	-2128
评价	-2129
知识	-2130
▁substan	-2131
就业	-2132
▁towards	-2133
▁Affairs	-2134
▁perform	-2135
▁bel	-2136
▁eng	-2137
▁four	-2138
ctober	-2139
▁conditions	-2140
重申	-2141
▁tre	-2142
▁representatives	-2143
▁total	-2144
▁pay	-2145
论坛	-2146
科学	-2147
isms	-2148
▁establishment	-2149
cept	-2150
▁sti	-2151
▁Nove	-2152
▁November	-2153
31	-2154
稳定	-2155
安理	-2156
sia	-2157
▁legislation	-2158
▁examp	-2159
ional	-2160
▁now	-2161
goti	-2162
▁nor	-2163
的国际	-2164
比亚	-2165
▁October	-2166
发达	-2167
▁instru	-2168
控制	-2169
现在	-2170
ocra	-2171
▁本	-2172
两个	-2173
▁systems	-2174
▁refl	-2175
)、	-2176
▁monitoring	-2177
standing	-2178
▁above	-2179
安理会	-2180
▁Su	-2181
erial	-2182
联邦	-2183
ract	-2184
istan	-2185
atic	-2186
提供的	-2187
2013	-2188
空间	-2189
▁discrimination	-2190
▁criminal	-2191
▁question	-2192
▁eval	-2193
▁increased	-2194
▁status	-2195
▁domestic	-2196
裁军	-2197
呼吁	-2198
1998	-2199
▁Jan	-2200
ource	-2201
▁March	-2202
非法	-2203
准则	-2204
>,	-2205
▁given	-2206
考虑到	-2207
▁comprehensive	-2208
直接	-2209
▁With	-2210
介绍	-2211
▁entit	-2212
abilities	-2213
▁organization	-2214
▁attention	-2215
集团	-2216
经费	-2217
是在	-2218
▁const	-2219
▁traffic	-2220
▁contained	-2221
▁cer	-2222
du	-2223
可持续发展	-2224
过程	-2225
24	-2226
▁direct	-2227
伙伴关系	-2228
组织的	-2229
▁what	-2230
▁10.	-2231
年度	-2232
IV	-2233
在其	-2234
▁design	-2235
▁Palestinian	-2236
UN	-2237
fer	-2238
采用	-2239
规定的	-2240
制订	-2241
统计	-2242
对于	-2243
▁1998	-2244
提供了	-2245
▁justice	-2246
▁Declaration	-2247
▁Com	-2248
▁costs	-2249
▁member	-2250
所需	-2251
vious	-2252
▁Represent	-2253
pecially	-2254
财务	-2255
▁vis	-2256
ulations	-2257
▁technology	-2258
之后	-2259
专门	-2260
▁because	-2261
群体	-2262
ator	-2263
第一	-2264
spec	-2265
▁way	-2266
▁mechanisms	-2267
▁proper	-2268
▁Article	-2269
▁reported	-2270
▁secret	-2271
▁practices	-2272
员额	-2273
的影响	-2274
▁coordination	-2275
▁real	-2276
▁liv	-2277
▁Ministry	-2278
ring	-2279
▁negoti	-2280
izing	-2281
▁prep	-2282
uary	-2283
▁resolutions	-2284
明确	-2285
推动	-2286
ath	-2287
▁existing	-2288
银行	-2289
▁independ	-2290
对话	-2291
自己	-2292
发挥	-2293
拉克	-2294
▁relating	-2295
▁bro	-2296
▁concerning	-2297
目的	-2298
需求	-2299
无法	-2300
▁Fed	-2301
23	-2302
▁gen	-2303
执行情况	-2304
条款	-2305
ergy	-2306
itation	-2307
anel	-2308
rial	-2309
全国	-2310
▁force	-2311
▁means	-2312
21	-2313
第十	-2314
▁net	-2315
abour	-2316
▁how	-2317
▁did	-2318
▁included	-2319
ocratic	-2320
观察	-2321
▁representative	-2322
▁territ	-2323
work	-2324
广泛	-2325
之前	-2326
专员	-2327
▁expressed	-2328
联系	-2329
urn	-2330
be	-2331
请求	-2332
▁January	-2333
▁与	-2334
▁small	-2335
▁step	-2336
ief	-2337
▁posi	-2338
▁constit	-2339
▁challenges	-2340
▁personnel	-2341
会议的	-2342
和国际	-2343
气候	-2344
▁low	-2345
hold	-2346
▁addressed	-2347
▁especially	-2348
tims	-2349
▁standards	-2350
pril	-2351
▁annex	-2352
扩大	-2353
▁whether	-2354
保健	-2355
▁my	-2356
▁results	-2357
▁different	-2358
最近	-2359
▁31	-2360
▁Me	-2361
威胁	-2362
▁2004	-2363
▁received	-2364
▁coun	-2365
▁procedures	-2366
▁effec	-2367
tives	-2368
▁risk	-2369
▁key	-2370
长期	-2371
伊拉克	-2372
原因	-2373
▁lack	-2374
based	-2375
遵守	-2376
reedom	-2377
ues	-2378
▁armed	-2379
内容	-2380
▁material	-2381
定期	-2382
▁April	-2383
▁family	-2384
某些	-2385
IS	-2386
普遍	-2387
侵犯	-2388
ls	-2389
ists	-2390
▁therefore	-2391
▁terms	-2392
own	-2393
不能	-2394
▁rules	-2395
▁有	-2396
两年期	-2397
▁11.	-2398
宪法	-2399
▁entitled	-2400
▁decid	-2401
raq	-2402
这样	-2403
经验	-2404
罗斯	-2405
▁regular	-2406
违反	-2407
aced	-2408
的一个	-2409
▁very	-2410
承认	-2411
同意	-2412
force	-2413
▁amount	-2414
ob	-2415
▁indigenous	-2416
usiness	-2417
ribun	-2418
▁1999	-2419
ialog	-2420
千年	-2421
上述	-2422
▁Peace	-2423
▁expec	-2424
▁life	-2425
lain	-2426
▁response	-2427
▁statement	-2428
▁25	-2429
一级	-2430
危机	-2431
less	-2432
中国	-2433
维持和平	-2434
者的	-2435
符合	-2436
ological	-2437
az	-2438
▁Iraq	-2439
应对	-2440
▁month	-2441
rec	-2442
条第	-2443
▁meth	-2444
▁det	-2445
▁secretariat	-2446
内部	-2447
ON	-2448
▁providing	-2449
▁regarding	-2450
phas	-2451
▁responsibility	-2452
ES	-2453
▁principles	-2454
▁rese	-2455
▁12.	-2456
▁government	-2457
▁cost	-2458
▁determin	-2459
sian	-2460
重新	-2461
▁2007	-2462
▁000	-2463
工作的	-2464
▁funds	-2465
协议	-2466
一份	-2467
上的	-2468
▁Executive	-2469
▁Report	-2470
阶段	-2471
俄罗斯	-2472
40	-2473
虽然	-2474
面临	-2475
▁obligations	-2476
出现	-2477
▁Child	-2478
ding	-2479
组成	-2480
▁2002	-2481
▁adoption	-2482
收到	-2483
▁fully	-2484
▁Advisory	-2485
▁environmental	-2486
▁ret	-2487
60	-2488
day	-2489
的能力	-2490
印度	-2491
▁然	-2492
所述	-2493
和社会	-2494
适用	-2495
重点	-2496
CR	-2497
iter	-2498
▁la	-2499
核武器	-2500
▁example	-2501
▁emerg	-2502
mar	-2503
▁estim	-2504
关键	-2505
▁victims	-2506
▁All	-2507
因素	-2508
▁struc	-2509
▁previous	-2510
▁El	-2511
28	-2512
ialogue	-2513
▁threat	-2514
con	-2515
duce	-2516
▁increasing	-2517
▁war	-2518
采取的	-2519
▁interest	-2520
导致	-2521
的规定	-2522
▁不	-2523
ering	-2524
other	-2525
ories	-2526
大的	-2527
▁sever	-2528
材料	-2529
▁vo	-2530
活动的	-2531
▁prof	-2532
eb	-2533
ket	-2534
▁growth	-2535
▁reas	-2536
▁Direct	-2537
▁open	-2538
▁achieve	-2539
▁succ	-2540
▁strengthening	-2541
4/	-2542
▁Imp	-2543
▁21	-2544
▁analys	-2545
▁circ	-2546
▁如果	-2547
itiz	-2548
▁sexual	-2549
土地	-2550
▁initiatives	-2551
▁2012	-2552
ried	-2553
▁And	-2554
▁food	-2555
▁joint	-2556
从而	-2557
▁Minister	-2558
▁Nor	-2559
▁provides	-2560
贩运	-2561
▁agreement	-2562
结构	-2563
26	-2564
▁success	-2565
了解	-2566
▁sim	-2567
ai	-2568
lements	-2569
%.	-2570
▁equality	-2571
总统	-2572
ivision	-2573
▁explo	-2574
▁service	-2575
联合国系统	-2576
旨在	-2577
捐助	-2578
▁annual	-2579
▁Sub	-2580
的法律	-2581
sp	-2582
▁every	-2583
▁she	-2584
和第	-2585
倡议	-2586
举行的	-2587
▁assessment	-2588
▁vol	-2589
结论	-2590
▁taking	-2591
▁occup	-2592
那些	-2593
事件	-2594
27	-2595
ope	-2596
结束	-2597
▁strategy	-2598
▁Vi	-2599
民间	-2600
机构的	-2601
ulture	-2602
程度	-2603
新闻	-2604
▁assoc	-2605
elines	-2606
▁still	-2607
网络	-2608
▁several	-2609
▁method	-2610
文书	-2611
▁24	-2612
▁refuge	-2613
▁Dem	-2614
▁Z	-2615
▁freedom	-2616
发展目标	-2617
ax	-2618
▁event	-2619
dd	-2620
一切	-2621
加入	-2622
▁water	-2623
▁refer	-2624
▁198	-2625
ances	-2626
▁maintain	-2627
▁subject	-2628
宗教	-2629
▁2011	-2630
落实	-2631
▁它	-2632
▁23	-2633
22	-2634
▁common	-2635
▁They	-2636
▁rule	-2637
编写	-2638
法官	-2639
▁These	-2640
▁recent	-2641
▁cover	-2642
EP	-2643
▁Plan	-2644
▁does	-2645
▁large	-2646
▁found	-2647
保证	-2648
▁contributions	-2649
▁rati	-2650
粮食	-2651
▁less	-2652
▁even	-2653
mission	-2654
vity	-2655
▁head	-2656
▁due	-2657
运动	-2658
▁peacekeeping	-2659
多数	-2660
▁Service	-2661
▁adequ	-2662
▁Mon	-2663
的所有	-2664
▁employment	-2665
▁mig	-2666
▁decisions	-2667
▁Representative	-2668
ledge	-2669
▁Inform	-2670
实体	-2671
▁relations	-2672
的活动	-2673
▁Administ	-2674
▁cris	-2675
▁partnership	-2676
▁13.	-2677
▁commitment	-2678
人类	-2679
▁behalf	-2680
▁observ	-2681
▁pres	-2682
▁gir	-2683
▁fif	-2684
▁UNC	-2685
的重要	-2686
▁introduc	-2687
拘留	-2688
;(	-2689
▁trafficking	-2690
5,	-2691
aged	-2692
▁Director	-2693
▁proceed	-2694
▁ill	-2695
发达国家	-2696
rison	-2697
尤其是	-2698
rust	-2699
▁hig	-2700
海洋	-2701
农业	-2702
▁fe	-2703
▁prevention	-2704
ars	-2705
▁serious	-2706
▁civilian	-2707
term	-2708
ending	-2709
▁operational	-2710
当地	-2711
成员国	-2712
外交	-2713
▁HIV	-2714
的最	-2715
ode	-2716
首脑	-2717
行动计划	-2718
▁don	-2719
改进	-2720
▁leaders	-2721
▁Inter	-2722
民族	-2723
助于	-2724
▁UNDP	-2725
▁14.	-2726
use	-2727
▁2003	-2728
29	-2729
▁protect	-2730
sed	-2731
▁biennium	-2732
▁pot	-2733
成功	-2734
▁emphas	-2735
aran	-2736
▁adequate	-2737
▁planning	-2738
▁funding	-2739
▁decided	-2740
mes	-2741
▁Cont	-2742
保留	-2743
/7	-2744
▁business	-2745
编制	-2746
▁missions	-2747
下列	-2748
eria	-2749
1997	-2750
宣传	-2751
IDS	-2752
▁effic	-2753
▁dialogue	-2754
合同	-2755
确认	-2756
▁22	-2757
尊重	-2758
ior	-2759
lusion	-2760
aus	-2761
▁While	-2762
▁own	-2763
ugust	-2764
▁actions	-2765
城市	-2766
▁least	-2767
EF	-2768
▁broad	-2769
pose	-2770
▁但是	-2771
▁然而	-2772
这项	-2773
恢复	-2774
▁China	-2775
▁28	-2776
olid	-2777
专业	-2778
记录	-2779
AC	-2780
非常	-2781
ording	-2782
▁disarmament	-2783
▁conclud	-2784
eal	-2785
▁America	-2786
▁free	-2787
人们	-2788
▁research	-2789
▁lin	-2790
ribunal	-2791
扩散	-2792
ather	-2793
贡献	-2794
▁Treat	-2795
艾滋病毒	-2796
areness	-2797
▁objec	-2798
美洲	-2799
生物	-2800
▁arrange	-2801
rime	-2802
--	-2803
▁26	-2804
进行了	-2805
▁rate	-2806
该国	-2807
做出	-2808
▁cultural	-2809
ward	-2810
估计	-2811
▁char	-2812
来自	-2813
▁application	-2814
▁August	-2815
ising	-2816
劳动	-2817
▁consultations	-2818
并在	-2819
举办	-2820
ebru	-2821
ebruary	-2822
西亚	-2823
的主要	-2824
登记	-2825
acy	-2826
过去	-2827
▁bal	-2828
▁active	-2829
hib	-2830
工具	-2831
▁enhance	-2832
反对	-2833
▁last	-2834
▁recommended	-2835
ancing	-2836
▁deal	-2837
▁space	-2838
▁five	-2839
的建议	-2840
▁violations	-2841
shop	-2842
▁peoples	-2843
事实	-2844
Add	-2845
▁strong	-2846
▁spe	-2847
▁promotion	-2848
外国	-2849
基金会	-2850
▁15.	-2851
苏丹	-2852
▁February	-2853
rant	-2854
CN	-2855
有助于	-2856
▁sug	-2857
议会	-2858
ipment	-2859
重大	-2860
局势	-2861
▁close	-2862
iate	-2863
▁gra	-2864
▁transfer	-2865
能源	-2866
青年	-2867
▁27	-2868
IN	-2869
▁judic	-2870
illennium	-2871
▁third	-2872
▁diffic	-2873
第五	-2874
ically	-2875
民间社会	-2876
▁foreign	-2877
▁certain	-2878
贫穷	-2879
指标	-2880
完全	-2881
▁practice	-2882
▁Further	-2883
▁请	-2884
angu	-2885
▁administrative	-2886
题为	-2887
选择	-2888
的情况下	-2889
就是	-2890
▁needed	-2891
ouse	-2892
198	-2893
学校	-2894
rast	-2895
协会	-2896
▁age	-2897
▁strategies	-2898
达成	-2899
arters	-2900
更加	-2901
▁investment	-2902
▁awareness	-2903
ready	-2904
▁exch	-2905
经常	-2906
line	-2907
委会	-2908
情况下	-2909
▁indust	-2910
▁ess	-2911
▁might	-2912
管制	-2913
▁由于	-2914
列入	-2915
本国	-2916
▁reduction	-2917
aken	-2918
▁strategic	-2919
▁production	-2920
▁Sp	-2921
▁sen	-2922
comes	-2923
▁contract	-2924
的努力	-2925
▁priority	-2926
▁better	-2927
▁girls	-2928
保持	-2929
▁Q	-2930
▁Centre	-2931
之一	-2932
▁exerc	-2933
▁communities	-2934
▁dest	-2935
▁forces	-2936
▁energy	-2937
万美元	-2938
▁problems	-2939
享有	-2940
▁laws	-2941
▁organized	-2942
▁pen	-2943
▁however	-2944
▁conn	-2945
索赔	-2946
▁treaty	-2947
oy	-2948
▁supported	-2949
irm	-2950
▁16.	-2951
▁implementing	-2952
DC	-2953
▁already	-2954
ling	-2955
▁let	-2956
缺乏	-2957
总部	-2958
为了	-2959
自然	-2960
整个	-2961
anced	-2962
.3	-2963
▁crime	-2964
isc	-2965
▁terrorism	-2966
▁Panel	-2967
though	-2968
多边	-2969
第四	-2970
uted	-2971
一直	-2972
▁drug	-2973
lated	-2974
▁requests	-2975
aring	-2976
▁climate	-2977
医疗	-2978
议程项目	-2979
▁relig	-2980
onst	-2981
酷刑	-2982
解释	-2983
▁2001	-2984
dic	-2985
HR	-2986
不断	-2987
修订	-2988
ulner	-2989
▁ver	-2990
▁posts	-2991
level	-2992
若干	-2993
▁Asia	-2994
日在	-2995
▁Millennium	-2996
规模	-2997
方案的	-2998
资产	-2999
现象	-3000
进行的	-3001
arter	-3002
▁summ	-3003
▁Ter	-3004
定的	-3005
▁play	-3006
▁agreements	-3007
ging	-3008
基于	-3009
▁final	-3010
▁camp	-3011
▁aimed	-3012
▁chan	-3013
mary	-3014
▁promoting	-3015
私营	-3016
▁evid	-3017
提议	-3018
veness	-3019
quarters	-3020
utes	-3021
分配	-3022
▁treatment	-3023
▁Global	-3024
▁一	-3025
职能	-3026
权力	-3027
计划署	-3028
▁committed	-3029
▁performance	-3030
6,	-3031
▁alleg	-3032
通过了	-3033
构成	-3034
gu	-3035
申请	-3036
▁position	-3037
是一个	-3038
▁hand	-3039
▁arms	-3040
▁Rus	-3041
价值	-3042
▁17.	-3043
▁implemented	-3044
受害者	-3045
▁conven	-3046
妇女和	-3047
▁notes	-3048
▁collabor	-3049
▁Division	-3050
▁ori	-3051
▁Information	-3052
▁responsible	-3053
▁called	-3054
▁knowledge	-3055
▁best	-3056
▁vulner	-3057
官员	-3058
cy	-3059
提到	-3060
udit	-3061
ses	-3062
后续	-3063
▁acts	-3064
liance	-3065
▁equipment	-3066
声明	-3067
通过的	-3068
移民	-3069
手段	-3070
▁Coven	-3071
农村	-3072
同样	-3073
性和	-3074
▁18.	-3075
ER	-3076
▁sett	-3077
准备	-3078
▁employ	-3079
拟议	-3080
▁market	-3081
▁plans	-3082
将在	-3083
访问	-3084
拥有	-3085
▁pers	-3086
▁instruments	-3087
▁analysis	-3088
ienti	-3089
II	-3090
▁section	-3091
反映	-3092
给予	-3093
▁还	-3094
▁approved	-3095
紧急	-3096
gether	-3097
▁together	-3098
▁network	-3099
tilateral	-3100
orture	-3101
▁Go	-3102
uations	-3103
▁dated	-3104
▁offices	-3105
▁documents	-3106
支付	-3107
▁Head	-3108
▁Tribunal	-3109
▁consist	-3110
次会议上	-3111
▁objectives	-3112
▁find	-3113
▁East	-3114
▁facilitate	-3115
出口	-3116
▁hold	-3117
千年发展目标	-3118
ticles	-3119
采购	-3120
▁29	-3121
▁procedure	-3122
unic	-3123
▁Techn	-3124
少数	-3125
▁income	-3126
▁potential	-3127
国际法	-3128
▁Commissioner	-3129
OP	-3130
ctions	-3131
▁exam	-3132
side	-3133
▁evaluation	-3134
▁尽管	-3135
▁US	-3136
▁Covenant	-3137
妇女的	-3138
▁aspec	-3139
arante	-3140
决策	-3141
▁Sum	-3142
ulated	-3143
ructure	-3144
气候变化	-3145
▁record	-3146
▁prepared	-3147
▁That	-3148
刚果	-3149
回顾	-3150
▁Peop	-3151
▁past	-3152
▁ensuring	-3153
▁sent	-3154
▁Ab	-3155
▁involved	-3156
ermanent	-3157
▁ground	-3158
提交人	-3159
死亡	-3160
▁Central	-3161
▁Permanent	-3162
▁Constitution	-3163
iversal	-3164
重要的	-3165
aster	-3166
AT	-3167
授权	-3168
欧洲联盟	-3169
▁But	-3170
补充	-3171
▁list	-3172
endit	-3173
▁crisis	-3174
▁opportunities	-3175
的信	-3176
▁back	-3177
ints	-3178
gn	-3179
▁Mal	-3180
▁steps	-3181
▁ins	-3182
成立	-3183
▁enforce	-3184
▁langu	-3185
▁greater	-3186
va	-3187
只有	-3188
▁study	-3189
理由	-3190
▁tex	-3191
▁informed	-3192
达到	-3193
▁Coordin	-3194
▁workshop	-3195
质量	-3196
不可	-3197
▁Democratic	-3198
pro	-3199
签署	-3200
>(	-3201
ave	-3202
未来	-3203
▁19.	-3204
▁forms	-3205
马里	-3206
女士	-3207
vised	-3208
水平	-3209
▁rural	-3210
ible	-3211
▁秘书长	-3212
▁stated	-3213
unt	-3214
▁tar	-3215
▁discussion	-3216
鉴于	-3217
政府间	-3218
人数	-3219
▁processes	-3220
森林	-3221
ailed	-3222
品和	-3223
▁expected	-3224
thern	-3225
▁meet	-3226
▁experts	-3227
▁team	-3228
▁property	-3229
dom	-3230
co	-3231
▁During	-3232
▁carried	-3233
iversity	-3234
主管	-3235
▁function	-3236
app	-3237
▁become	-3238
的方式	-3239
▁statements	-3240
▁caus	-3241
▁According	-3242
▁workers	-3243
▁matters	-3244
)(	-3245
▁che	-3246
▁belie	-3247
▁guidelines	-3248
运输	-3249
▁office	-3250
▁Tran	-3251
政策和	-3252
拟订	-3253
危险	-3254
▁Support	-3255
lia	-3256
▁early	-3257
▁asse	-3258
最不	-3259
专题	-3260
▁took	-3261
tiveness	-3262
going	-3263
赔偿	-3264
▁quality	-3265
▁Li	-3266
▁Bank	-3267
▁statis	-3268
▁principle	-3269
%,	-3270
▁Criminal	-3271
ified	-3272
▁associ	-3273
实行	-3274
相互	-3275
设备	-3276
▁cred	-3277
▁recommendation	-3278
支出	-3279
▁basic	-3280
占领	-3281
财产	-3282
essional	-3283
▁facilities	-3284
▁Treaty	-3285
ditional	-3286
移徙	-3287
▁identify	-3288
2015	-3289
贫困	-3290
▁guarante	-3291
和平与	-3292
条例	-3293
团体	-3294
▁undertaken	-3295
▁transport	-3296
▁multi	-3297
▁air	-3298
调整	-3299
uty	-3300
允许	-3301
各方	-3302
▁communication	-3303
通知	-3304
cent	-3305
gent	-3306
行动纲	-3307
▁affected	-3308
▁essential	-3309
ash	-3310
related	-3311
▁infrast	-3312
伊斯	-3313
PA	-3314
ised	-3315
阿富	-3316
▁living	-3317
ections	-3318
交流	-3319
竞争	-3320
阿富汗	-3321
▁problem	-3322
▁arrangements	-3323
▁citiz	-3324
供应	-3325
实质	-3326
日本	-3327
▁在这方面	-3328
▁Under	-3329
▁labour	-3330
▁mechanism	-3331
▁2013	-3332
满足	-3333
udan	-3334
▁natural	-3335
▁equal	-3336
▁benefits	-3337
lands	-3338
unity	-3339
▁currently	-3340
所载	-3341
▁为了	-3342
▁ty	-3343
▁elimin	-3344
▁mob	-3345
▁通过	-3346
▁matter	-3347
罪行	-3348
工业	-3349
▁respective	-3350
创造	-3351
lam	-3352
或者	-3353
数量	-3354
ides	-3355
▁Meeting	-3356
ilateral	-3357
▁independent	-3358
▁complain	-3359
▁King	-3360
▁goals	-3361
令人	-3362
▁individuals	-3363
vere	-3364
ologies	-3365
70	-3366
▁conduct	-3367
▁proposals	-3368
▁Fore	-3369
债务	-3370
▁officials	-3371
▁self	-3372
▁issued	-3373
感到	-3374
▁purpose	-3375
▁understanding	-3376
▁pursuant	-3377
▁rein	-3378
境内	-3379
提案	-3380
基础设施	-3381
▁often	-3382
其中包括	-3383
ours	-3384
▁just	-3385
答复	-3386
▁limited	-3387
▁tas	-3388
oper	-3389
通信	-3390
里亚	-3391
ilar	-3392
各国政府	-3393
▁another	-3394
▁Ms	-3395
和发展	-3396
核心	-3397
the	-3398
▁show	-3399
维护	-3400
伊斯兰	-3401
cep	-3402
▁financing	-3403
▁sugges	-3404
常驻	-3405
▁21.	-3406
证据	-3407
bs	-3408
亿美元	-3409
▁Management	-3410
amental	-3411
▁Implement	-3412
干事	-3413
透明	-3414
▁Sudan	-3415
组织和	-3416
▁tool	-3417
▁institutional	-3418
▁20.	-3419
▁stress	-3420
ression	-3421
▁Justice	-3422
来源	-3423
▁Oper	-3424
▁exc	-3425
▁另	-3426
号决定	-3427
而言	-3428
men	-3429
▁solution	-3430
全体	-3431
▁bring	-3432
什么	-3433
▁safe	-3434
失所	-3435
咨询委员会	-3436
和技术	-3437
>.	-3438
流离	-3439
申诉	-3440
▁Ann	-3441
认识到	-3442
▁light	-3443
证明	-3444
▁1,	-3445
增强	-3446
▁jur	-3447
▁Code	-3448
1)	-3449
▁Se	-3450
▁displ	-3451
日内	-3452
▁multilateral	-3453
商业	-3454
▁exchange	-3455
▁read	-3456
teg	-3457
▁conducted	-3458
流离失所	-3459
修正	-3460
▁contribute	-3461
▁next	-3462
oung	-3463
▁power	-3464
筹备	-3465
▁building	-3466
crib	-3467
▁Str	-3468
ensus	-3469
部署	-3470
here	-3471
stitute	-3472
尚未	-3473
取得的	-3474
▁expendit	-3475
▁put	-3476
今后	-3477
如下	-3478
aid	-3479
▁这一	-3480
▁sect	-3481
self	-3482
GO	-3483
▁obj	-3484
大学	-3485
带来	-3486
高级专员	-3487
bit	-3488
osed	-3489
地点	-3490
了一个	-3491
▁Tur	-3492
传统	-3493
▁distrib	-3494
个月	-3495
▁proposal	-3496
▁Review	-3497
女性	-3498
职业	-3499
▁er	-3500
▁line	-3501
▁Afgh	-3502
▁ren	-3503
▁nature	-3504
▁国际	-3505
▁able	-3506
密切	-3507
多样	-3508
rate	-3509
▁death	-3510
巴嫩	-3511
黎巴嫩	-3512
ream	-3513
▁commitments	-3514
▁give	-3515
▁laun	-3516
▁met	-3517
▁harm	-3518
▁infrastructure	-3519
holders	-3520
▁reserv	-3521
宣布	-3522
▁stake	-3523
▁short	-3524
ght	-3525
但是	-3526
日内瓦	-3527
mis	-3528
收集	-3529
urement	-3530
发表	-3531
▁Sc	-3532
▁recommends	-3533
ICEF	-3534
ferences	-3535
敦促	-3536
一名	-3537
加以	-3538
▁recognized	-3539
化学	-3540
及社会	-3541
工程	-3542
▁thus	-3543
自愿	-3544
▁Trade	-3545
▁Forum	-3546
▁entities	-3547
检察	-3548
amb	-3549
▁crimes	-3550
▁integrated	-3551
▁Environment	-3552
非正式	-3553
▁Assist	-3554
liament	-3555
▁then	-3556
▁overall	-3557
▁forward	-3558
体制	-3559
▁他们	-3560
统一	-3561
lied	-3562
▁concerns	-3563
▁22.	-3564
▁functions	-3565
▁negotiations	-3566
▁App	-3567
▁evidence	-3568
个国家	-3569
和经济	-3570
▁welcom	-3571
▁authority	-3572
▁date	-3573
▁agric	-3574
tioned	-3575
fficient	-3576
▁detention	-3577
比例	-3578
raft	-3579
▁Sw	-3580
两性	-3581
▁bri	-3582
ishment	-3583
▁enter	-3584
ograph	-3585
▁Gene	-3586
▁juris	-3587
▁Sy	-3588
▁Afghan	-3589
▁apprec	-3590
hab	-3591
首脑会议	-3592
▁Israeli	-3593
uel	-3594
▁Other	-3595
能力建设	-3596
▁presented	-3597
▁identified	-3598
ached	-3599
ification	-3600
zer	-3601
传播	-3602
王国	-3603
所作	-3604
▁Kingdom	-3605
ually	-3606
ounts	-3607
2014	-3608
iferation	-3609
AIDS	-3610
▁yet	-3611
的目标	-3612
古巴	-3613
举措	-3614
▁Federation	-3615
目的是	-3616
担任	-3617
▁aspects	-3618
▁much	-3619
▁Aust	-3620
主任	-3621
报告的	-3622
.5	-3623
电子	-3624
▁economy	-3625
ilies	-3626
▁others	-3627
进入	-3628
▁compan	-3629
▁One	-3630
enth	-3631
超过	-3632
▁More	-3633
▁origin	-3634
召开	-3635
▁fundamental	-3636
▁remains	-3637
CC	-3638
▁alloc	-3639
▁demand	-3640
▁Chairman	-3641
▁lear	-3642
▁rac	-3643
步骤	-3644
iary	-3645
过渡	-3646
▁prosec	-3647
▁opportunity	-3648
公平	-3649
讲习	-3650
ipl	-3651
6/	-3652
▁articles	-3653
apan	-3654
属于	-3655
▁combat	-3656
▁23.	-3657
▁months	-3658
核准	-3659
2)	-3660
▁communications	-3661
观察员	-3662
ientific	-3663
▁eth	-3664
下的	-3665
▁below	-3666
加拿	-3667
aries	-3668
reme	-3669
提出了	-3670
▁governance	-3671
ef	-3672
▁delegations	-3673
▁transp	-3674
感谢	-3675
诉讼	-3676
▁return	-3677
▁manner	-3678
的信息	-3679
▁media	-3680
▁Geneva	-3681
▁loss	-3682
ey	-3683
▁minor	-3684
imum	-3685
损失	-3686
儿童权利	-3687
▁Cooperation	-3688
▁disabilities	-3689
▁Agree	-3690
af	-3691
身份	-3692
叙利亚	-3693
AS	-3694
▁Can	-3695
▁III	-3696
▁effect	-3697
运作	-3698
宪章	-3699
住房	-3700
▁Exper	-3701
ptional	-3702
▁changes	-3703
承担	-3704
▁build	-3705
anda	-3706
io	-3707
ones	-3708
▁value	-3709
▁outcome	-3710
▁transition	-3711
▁medical	-3712
开发计划署	-3713
▁100	-3714
的其他	-3715
六十	-3716
▁higher	-3717
的发展	-3718
▁debt	-3719
▁Strateg	-3720
劳工	-3721
改变	-3722
45	-3723
大量	-3724
▁Implementation	-3725
机构和	-3726
vo	-3727
ics	-3728
▁cust	-3729
▁Leban	-3730
▁attack	-3731
▁resource	-3732
ada	-3733
检查	-3734
▁preparation	-3735
媒体	-3736
▁Educ	-3737
pris	-3738
大多数	-3739
▁categ	-3740
ii	-3741
mediate	-3742
讲习班	-3743
高级别	-3744
▁abs	-3745
更好	-3746
▁referred	-3747
从事	-3748
维持和平行动	-3749
ably	-3750
▁experience	-3751
▁draw	-3752
67	-3753
▁young	-3754
再次	-3755
十年	-3756
▁Offic	-3757
80	-3758
avi	-3759
8,	-3760
▁enforcement	-3761
▁court	-3762
显示	-3763
专家组	-3764
▁inten	-3765
▁1997	-3766
▁24.	-3767
最高	-3768
贸发	-3769
▁Unit	-3770
▁elect	-3771
予以	-3772
▁Comp	-3773
▁reduce	-3774
▁primary	-3775
的作用	-3776
产品	-3777
AR	-3778
加拿大	-3779
▁target	-3780
▁text	-3781
障碍	-3782
亚洲	-3783
▁compliance	-3784
untary	-3785
▁Russian	-3786
▁Public	-3787
▁far	-3788
第二十	-3789
isted	-3790
vered	-3791
▁refugees	-3792
▁Person	-3793
▁虽然	-3794
▁sessions	-3795
平民	-3796
男女	-3797
▁alia	-3798
▁regions	-3799
不扩散	-3800
▁positive	-3801
ury	-3802
▁exercise	-3803
土著人民	-3804
的经济	-3805
人力	-3806
▁internal	-3807
rants	-3808
精神	-3809
iting	-3810
以确保	-3811
▁prohib	-3812
及社会理事会	-3813
不仅	-3814
▁Non	-3815
▁carry	-3816
管辖	-3817
详细	-3818
▁citizens	-3819
寻求	-3820
特殊	-3821
mical	-3822
EC	-3823
▁If	-3824
任命	-3825
TAD	-3826
开发署	-3827
▁connection	-3828
ither	-3829
灾害	-3830
▁judicial	-3831
ination	-3832
▁according	-3833
▁50	-3834
▁del	-3835
▁cooper	-3836
uting	-3837
▁Regional	-3838
▁reference	-3839
3)	-3840
▁ongoing	-3841
▁conference	-3842
必要的	-3843
▁organ	-3844
不足	-3845
▁25.	-3846
orn	-3847
▁rates	-3848
▁stakeholders	-3849
▁critical	-3850
此类	-3851
▁making	-3852
pite	-3853
▁claims	-3854
机关	-3855
力的	-3856
▁having	-3857
困难	-3858
▁Charter	-3859
▁consequ	-3860
sibilities	-3861
▁Health	-3862
▁counter	-3863
order	-3864
▁fifty	-3865
▁him	-3866
▁indicated	-3867
有效的	-3868
他们的	-3869
▁body	-3870
▁主席	-3871
▁substantive	-3872
▁sep	-3873
▁Summit	-3874
▁integration	-3875
ustain	-3876
每年	-3877
▁top	-3878
▁upd	-3879
计算	-3880
这是	-3881
和保护	-3882
▁centres	-3883
▁Goals	-3884
EN	-3885
▁26.	-3886
ques	-3887
▁Count	-3888
ese	-3889
避免	-3890
成本	-3891
▁host	-3892
依据	-3893
▁Civil	-3894
▁compe	-3895
行动纲领	-3896
49	-3897
▁achieved	-3898
▁course	-3899
▁Japan	-3900
lies	-3901
▁tem	-3902
alling	-3903
▁separ	-3904
▁informal	-3905
▁Em	-3906
▁wish	-3907
效率	-3908
范围内	-3909
▁administration	-3910
▁Protection	-3911
▁days	-3912
ador	-3913
指控	-3914
▁Kore	-3915
action	-3916
by	-3917
ler	-3918
也是	-3919
▁amend	-3920
▁prison	-3921
wide	-3922
inted	-3923
▁immediate	-3924
▁cann	-3925
▁remo	-3926
▁compon	-3927
idd	-3928
发现	-3929
并不	-3930
▁Crime	-3931
起诉	-3932
▁officers	-3933
▁circum	-3934
▁respond	-3935
orpor	-3936
▁Institute	-3937
▁share	-3938
▁families	-3939
▁point	-3940
顾问	-3941
2/	-3942
▁Some	-3943
▁apply	-3944
私营部门	-3945
poses	-3946
▁mis	-3947
▁welcomed	-3948
伊朗	-3949
▁effectively	-3950
▁recru	-3951
转让	-3952
公正	-3953
残疾人	-3954
相关的	-3955
最不发达国家	-3956
▁torture	-3957
100	-3958
ruption	-3959
▁Agreement	-3960
▁她	-3961
儿童基金会	-3962
报告中	-3963
▁former	-3964
这类	-3965
▁territory	-3966
▁compens	-3967
year	-3968
acific	-3969
职位	-3970
aches	-3971
适当的	-3972
▁Territ	-3973
ya	-3974
35	-3975
▁paragraphs	-3976
▁capital	-3977
有权	-3978
▁Syri	-3979
模式	-3980
▁highl	-3981
▁safety	-3982
ees	-3983
▁views	-3984
▁Disc	-3985
磋商	-3986
▁improving	-3987
星期	-3988
各个	-3989
过程中	-3990
国民	-3991
审判	-3992
1996	-3993
课程	-3994
依照	-3995
出版	-3996
▁disp	-3997
行使	-3998
致力	-3999
▁objective	-4000
▁restric	-4001
OS	-4002
遭受	-4003
rought	-4004
的基础	-4005
tification	-4006
▁27.	-4007
▁jurisdic	-4008
行为的	-4009
领域的	-4010
stances	-4011
▁discussions	-4012
▁enable	-4013
ED	-4014
▁altern	-4015
优先事项	-4016
▁regim	-4017
gal	-4018
战争	-4019
making	-4020
▁purposes	-4021
semin	-4022
▁UNICEF	-4023
▁sectors	-4024
▁dire	-4025
▁reason	-4026
的任务	-4027
在内的	-4028
IT	-4029
▁participate	-4030
纽约	-4031
racy	-4032
▁submission	-4033
▁fulf	-4034
不得	-4035
▁guidance	-4036
tition	-4037
▁enj	-4038
9/	-4039
▁hous	-4040
▁UNCTAD	-4041
▁initiative	-4042
▁indicators	-4043
▁collaboration	-4044
▁surve	-4045
ock	-4046
儿童的	-4047
tained	-4048
uts	-4049
▁国家	-4050
▁adj	-4051
iency	-4052
▁experi	-4053
会议上	-4054
▁So	-4055
公众	-4056
73	-4057
ends	-4058
▁ve	-4059
▁effects	-4060
虐待	-4061
预期	-4062
more	-4063
重视	-4064
▁until	-4065
▁revised	-4066
律师	-4067
▁Cons	-4068
有利	-4069
,<	-4070
性质	-4071
rests	-4072
福利	-4073
▁pun	-4074
▁demonst	-4075
▁expert	-4076
系列	-4077
▁从	-4078
tenance	-4079
izes	-4080
issions	-4081
tial	-4082
regional	-4083
▁benefit	-4084
▁throughout	-4085
tered	-4086
会者	-4087
预计	-4088
主题	-4089
▁proceedings	-4090
▁pap	-4091
ilization	-4092
两性平等	-4093
ell	-4094
的任何	-4095
▁28.	-4096
观点	-4097
▁Lat	-4098
ier	-4099
aign	-4100
ched	-4101
▁participants	-4102
▁Cub	-4103
▁priorities	-4104
▁Since	-4105
ecting	-4106
趋势	-4107
上诉	-4108
待遇	-4109
▁Agency	-4110
▁York	-4111
▁Net	-4112
▁press	-4113
▁universal	-4114
法国	-4115
意义	-4116
▁大会	-4117
三个	-4118
民主共和国	-4119
of	-4120
资助	-4121
和联合国	-4122
经济及社会理事会	-4123
▁begin	-4124
▁situations	-4125
▁She	-4126
▁standard	-4127
oh	-4128
▁sk	-4129
合法	-4130
破坏	-4131
nic	-4132
▁estimated	-4133
▁successful	-4134
▁poor	-4135
ger	-4136
设计	-4137
▁using	-4138
腐败	-4139
本报告	-4140
▁regulations	-4141
▁schools	-4142
▁phys	-4143
▁就	-4144
不会	-4145
▁items	-4146
的决定	-4147
定义	-4148
ured	-4149
外地	-4150
生效	-4151
对其	-4152
▁assets	-4153
概念	-4154
捐款	-4155
▁Ac	-4156
人和	-4157
▁inn	-4158
nership	-4159
inion	-4160
适用于	-4161
▁letter	-4162
ires	-4163
7/	-4164
8/	-4165
▁done	-4166
的资料	-4167
侵害	-4168
学生	-4169
▁gener	-4170
▁ge	-4171
▁cannot	-4172
▁day	-4173
▁除	-4174
加勒	-4175
porary	-4176
▁reiter	-4177
药物	-4178
▁2,	-4179
▁vulnerable	-4180
▁vote	-4181
know	-4182
▁effectiveness	-4183
▁People	-4184
AM	-4185
▁few	-4186
如此	-4187
▁elements	-4188
▁fem	-4189
1995	-4190
将其	-4191
▁29.	-4192
阿尔	-4193
联合王国	-4194
yn	-4195
▁questions	-4196
地区的	-4197
▁Foreign	-4198
维亚	-4199
▁abuse	-4200
▁technologies	-4201
▁addressing	-4202
AL	-4203
▁IC	-4204
任择	-4205
▁central	-4206
方案和	-4207
▁Congo	-4208
enty	-4209
▁achieving	-4210
▁NGO	-4211
▁His	-4212
▁Iran	-4213
的行为	-4214
wa	-4215
▁ban	-4216
selves	-4217
to	-4218
▁enjoy	-4219
▁around	-4220
▁transmit	-4221
致力于	-4222
缔约方会议	-4223
▁effort	-4224
居民	-4225
▁writ	-4226
▁Children	-4227
time	-4228
▁X	-4229
akes	-4230
加勒比	-4231
对妇女	-4232
▁sources	-4233
▁dissemin	-4234
一起	-4235
ION	-4236
iddle	-4237
aties	-4238
ify	-4239
清单	-4240
辩论	-4241
▁obser	-4242
截至	-4243
▁legislative	-4244
研讨	-4245
▁down	-4246
▁wide	-4247
-4	-4248
▁circumstances	-4249
lusive	-4250
bbe	-4251
损害	-4252
▁neg	-4253
arent	-4254
▁Political	-4255
65	-4256
邀请	-4257
▁Islam	-4258
▁UNF	-4259
▁Services	-4260
rary	-4261
overy	-4262
▁当	-4263
公开	-4264
采取行动	-4265
omal	-4266
及时	-4267
▁40	-4268
▁ways	-4269
HCR	-4270
▁model	-4271
enary	-4272
osp	-4273
至关	-4274
▁自	-4275
▁name	-4276
语发言	-4277
时候	-4278
osition	-4279
的各项	-4280
▁30.	-4281
欧盟	-4282
▁consum	-4283
人权委员会	-4284
▁hours	-4285
▁60	-4286
立即	-4287
irmed	-4288
EA	-4289
每个	-4290
kets	-4291
服务的	-4292
▁2014	-4293
▁Trans	-4294
任择议定书	-4295
迅速	-4296
工作队	-4297
▁term	-4298
数字	-4299
交易	-4300
▁anti	-4301
十分	-4302
▁Over	-4303
来文	-4304
▁31.	-4305
出席	-4306
来说	-4307
ustainable	-4308
▁pat	-4309
贸发会议	-4310
▁continues	-4311
▁elections	-4312
ico	-4313
▁encourage	-4314
武装冲突	-4315
▁includes	-4316
▁Ha	-4317
▁Be	-4318
jected	-4319
科索	-4320
3/	-4321
造成的	-4322
▁recon	-4323
OM	-4324
▁itself	-4325
person	-4326
▁Section	-4327
▁aid	-4328
▁your	-4329
▁materials	-4330
48	-4331
verage	-4332
▁range	-4333
▁Such	-4334
▁Bel	-4335
ored	-4336
omin	-4337
▁compet	-4338
实质性	-4339
研讨会	-4340
和区域	-4341
攸关	-4342
科索沃	-4343
▁Force	-4344
信息和	-4345
ectoral	-4346
▁例如	-4347
索马里	-4348
的一些	-4349
▁最后	-4350
lications	-4351
▁relation	-4352
▁supporting	-4353
筹资	-4354
▁Col	-4355
▁travel	-4356
▁urban	-4357
oid	-4358
有限	-4359
▁campaign	-4360
所涉	-4361
至少	-4362
▁delivery	-4363
的要求	-4364
uter	-4365
▁similar	-4366
▁opinion	-4367
体系	-4368
货币	-4369
人口基金	-4370
人权事务	-4371
▁introduced	-4372
▁scope	-4373
墨西	-4374
的一部分	-4375
▁maintenance	-4376
墨西哥	-4377
9,	-4378
ania	-4379
▁目前	-4380
▁complete	-4381
最终	-4382
▁据	-4383
90	-4384
▁structure	-4385
▁Somal	-4386
▁sixty	-4387
提交的	-4388
▁Equ	-4389
▁associated	-4390
▁Furthermore	-4391
▁subsequ	-4392
▁positions	-4393
▁suff	-4394
她们	-4395
案文	-4396
▁accept	-4397
▁activity	-4398
巴西	-4399
视为	-4400
-3	-4401
在国家	-4402
▁Cari	-4403
▁developments	-4404
澳大	-4405
监狱	-4406
bbean	-4407
▁peaceful	-4408
德国	-4409
澳大利亚	-4410
raz	-4411
背景	-4412
各级	-4413
的代表	-4414
▁emb	-4415
▁acqu	-4416
IL	-4417
知道	-4418
以上	-4419
土耳	-4420
yan	-4421
▁il	-4422
gy	-4423
▁Cl	-4424
▁Caribbean	-4425
▁32.	-4426
▁Inc	-4427
▁UNM	-4428
▁reach	-4429
▁defin	-4430
▁economies	-4431
土耳其	-4432
▁Korea	-4433
来越	-4434
赞赏	-4435
▁German	-4436
▁jurisdiction	-4437
ev	-4438
ourth	-4439
ills	-4440
▁33.	-4441
▁interests	-4442
国际公约	-4443
alls	-4444
▁Assoc	-4445
利益攸关	-4446
越来越	-4447
▁imm	-4448
的政策	-4449
ifth	-4450
▁improved	-4451
有所	-4452
供资	-4453
主权	-4454
▁将	-4455
消费	-4456
▁create	-4457
地注意到	-4458
商定	-4459
rop	-4460
地雷	-4461
▁job	-4462
俄罗斯联邦	-4463
我国	-4464
▁Education	-4465
年龄	-4466
制裁	-4467
▁whose	-4468
▁interp	-4469
威特	-4470
理解	-4471
▁trend	-4472
类似	-4473
科威特	-4474
单位	-4475
通报	-4476
后续行动	-4477
▁illeg	-4478
复杂	-4479
特别代表	-4480
▁Afghanistan	-4481
sight	-4482
ately	-4483
▁rap	-4484
▁struct	-4485
▁Joint	-4486
数额	-4487
小组委员会	-4488
alities	-4489
▁ide	-4490
▁arbit	-4491
化的	-4492
▁describ	-4493
西班	-4494
▁occur	-4495
▁如	-4496
venth	-4497
西班牙	-4498
▁relationship	-4499
▁establishing	-4500
▁violation	-4501
▁hist	-4502
塞尔	-4503
▁periodic	-4504
平均	-4505
▁bre	-4506
77	-4507
▁dam	-4508
▁Part	-4509
▁events	-4510
▁这种	-4511
▁continuing	-4512
分别	-4513
▁fl	-4514
太平	-4515
▁34.	-4516
▁terrorist	-4517
▁Annex	-4518
▁billion	-4519
物质	-4520
适应	-4521
sing	-4522
itable	-4523
▁advance	-4524
▁cross	-4525
有必要	-4526
人力资源	-4527
太平洋	-4528
▁comments	-4529
▁balance	-4530
>、	-4531
▁UNHCR	-4532
▁mean	-4533
▁emp	-4534
omb	-4535
修改	-4536
▁encouraged	-4537
SC	-4538
▁Headquarters	-4539
▁audit	-4540
▁actors	-4541
▁operation	-4542
▁Liber	-4543
降低	-4544
▁across	-4545
▁brief	-4546
之外	-4547
下降	-4548
双边	-4549
▁led	-4550
▁avoid	-4551
55	-4552
历史	-4553
▁Canada	-4554
▁extent	-4555
▁reaff	-4556
▁Sh	-4557
疾病	-4558
portion	-4559
原子	-4560
▁voluntary	-4561
日益	-4562
▁1996	-4563
▁methods	-4564
有可能	-4565
安保	-4566
年期间	-4567
自己的	-4568
总体	-4569
立场	-4570
.4	-4571
价格	-4572
保险	-4573
comm	-4574
▁Persons	-4575
此种	-4576
▁treaties	-4577
▁states	-4578
他的	-4579
▁incorpor	-4580
alled	-4581
技术援助	-4582
rorism	-4583
verse	-4584
▁应	-4585
▁word	-4586
▁fail	-4587
isters	-4588
▁applied	-4589
way	-4590
将继续	-4591
和执行	-4592
para	-4593
刚果民主共和国	-4594
▁goods	-4595
的新	-4596
很多	-4597
的社会	-4598
ibility	-4599
▁whole	-4600
首先	-4601
▁forum	-4602
便利	-4603
▁鉴于	-4604
与发展	-4605
众国	-4606
pes	-4607
▁investigation	-4608
emin	-4609
▁sol	-4610
一样	-4611
▁和	-4612
▁deep	-4613
▁Des	-4614
研究所	-4615
▁youth	-4616
▁housing	-4617
▁35.	-4618
▁accountability	-4619
分发	-4620
▁consultation	-4621
▁products	-4622
▁consensus	-4623
合理	-4624
uwa	-4625
▁displaced	-4626
▁physical	-4627
形式的	-4628
▁religious	-4629
rance	-4630
人员的	-4631
▁Sustainable	-4632
▁themselves	-4633
治疗	-4634
urance	-4635
omp	-4636
反应	-4637
▁decl	-4638
作了	-4639
的机会	-4640
▁sanc	-4641
rict	-4642
▁specialized	-4643
▁penal	-4644
▁creation	-4645
ze	-4646
良好	-4647
▁incid	-4648
▁Pacific	-4649
▁courts	-4650
女孩	-4651
▁obligation	-4652
▁tro	-4653
职责	-4654
大规模	-4655
卢旺	-4656
yc	-4657
卢旺达	-4658
双方	-4659
人权理事会	-4660
少年	-4661
▁2008,	-4662
▁India	-4663
▁core	-4664
▁ethnic	-4665
▁enterpris	-4666
ipp	-4667
razil	-4668
▁difficult	-4669
▁Discrimination	-4670
ulate	-4671
▁wee	-4672
▁table	-4673
▁rather	-4674
都是	-4675
1/	-4676
pons	-4677
▁Optional	-4678
yl	-4679
ercial	-4680
系统的	-4681
▁Countries	-4682
ticip	-4683
ought	-4684
▁compensation	-4685
项目的	-4686
▁chap	-4687
▁directly	-4688
在第	-4689
的重要性	-4690
most	-4691
▁practical	-4692
举行了	-4693
治理	-4694
▁Pr	-4695
引起	-4696
37	-4697
▁2009,	-4698
▁adopt	-4699
▁supply	-4700
▁政府	-4701
法治	-4702
▁By	-4703
▁Mar	-4704
者和	-4705
▁UNEP	-4706
roliferation	-4707
▁custom	-4708
安全和	-4709
▁Second	-4710
安全理事会第	-4711
特别是在	-4712
的措施	-4713
训练	-4714
▁36.	-4715
人权和	-4716
▁partnerships	-4717
提及	-4718
ades	-4719
▁crit	-4720
used	-4721
▁seek	-4722
▁mut	-4723
各自	-4724
流动	-4725
▁Disarmament	-4726
eed	-4727
ronic	-4728
▁)	-4729
今天	-4730
HE	-4731
▁remained	-4732
▁procurement	-4733
▁house	-4734
▁Administrative	-4735
▁exten	-4736
apon	-4737
发出	-4738
会计	-4739
▁ce	-4740
的一项	-4741
▁consolid	-4742
▁calls	-4743
以前	-4744
▁innov	-4745
ension	-4746
▁extra	-4747
▁Syrian	-4748
▁1990	-4749
que	-4750
▁repl	-4751
账户	-4752
▁缔约国	-4753
介绍了	-4754
救济	-4755
▁Latin	-4756
▁Also	-4757
33	-4758
排放	-4759
▁stability	-4760
acter	-4761
habilit	-4762
PR	-4763
▁completed	-4764
达尔	-4765
adic	-4766
reen	-4767
▁Let	-4768
拒绝	-4769
▁sup	-4770
▁Party	-4771
▁hon	-4772
▁twenty	-4773
▁distribution	-4774
增进	-4775
▁bilateral	-4776
▁fav	-4777
▁regime	-4778
▁alleged	-4779
最佳	-4780
所以	-4781
istic	-4782
icit	-4783
▁adap	-4784
还是	-4785
itment	-4786
执法	-4787
应用	-4788
后果	-4789
▁reflected	-4790
起草	-4791
▁resol	-4792
▁appeal	-4793
▁debate	-4794
akers	-4795
▁leadership	-4796
力量	-4797
▁manag	-4798
▁outside	-4799
社会和	-4800
的支持	-4801
生命	-4802
▁Her	-4803
mal	-4804
心理	-4805
▁dise	-4806
审计委员会	-4807
的行动	-4808
原子能	-4809
▁applicable	-4810
▁37.	-4811
▁troop	-4812
arency	-4813
▁System	-4814
刑法	-4815
ubl	-4816
▁conv	-4817
查明	-4818
而不是	-4819
▁Austral	-4820
拉丁	-4821
本身	-4822
随后	-4823
▁judges	-4824
学习	-4825
规范	-4826
▁adjust	-4827
hic	-4828
63	-4829
75	-4830
tem	-4831
▁Prevention	-4832
▁receive	-4833
检察官	-4834
▁appreciation	-4835
和国家	-4836
▁perman	-4837
岛屿	-4838
切实	-4839
▁tax	-4840
▁today	-4841
▁female	-4842
▁Kuwa	-4843
▁uni	-4844
ancy	-4845
▁brought	-4846
投票	-4847
往往	-4848
官方	-4849
▁会议	-4850
所列	-4851
▁38.	-4852
维和	-4853
▁factors	-4854
为此	-4855
▁Moreover	-4856
▁emergency	-4857
▁old	-4858
▁external	-4859
脆弱	-4860
种族歧视	-4861
illed	-4862
▁ev	-4863
▁util	-4864
▁enabl	-4865
我们的	-4866
还有	-4867
▁Cuba	-4868
▁efficiency	-4869
与联合国	-4870
▁American	-4871
▁一些	-4872
▁recovery	-4873
通常	-4874
▁educational	-4875
▁export	-4876
▁points	-4877
协调员	-4878
▁average	-4879
▁2010,	-4880
▁subsid	-4881
▁provisional	-4882
当前	-4883
▁作为	-4884
andid	-4885
▁gap	-4886
▁appoint	-4887
▁capacities	-4888
国籍	-4889
ites	-4890
▁red	-4891
语言	-4892
▁Islamic	-4893
▁here	-4894
64	-4895
▁language	-4896
▁clar	-4897
▁plenary	-4898
▁Rel	-4899
权利和	-4900
▁instrument	-4901
▁complex	-4902
▁Polic	-4903
了一	-4904
▁2005,	-4905
指南	-4906
▁Mex	-4907
拉丁美洲	-4908
提请	-4909
pet	-4910
▁vac	-4911
ainstream	-4912
维也	-4913
▁challenge	-4914
▁again	-4915
不利	-4916
▁remed	-4917
维也纳	-4918
▁move	-4919
甚至	-4920
和平与安全	-4921
erous	-4922
▁0	-4923
中央	-4924
org	-4925
接触	-4926
▁resulting	-4927
教育和	-4928
▁decre	-4929
enced	-4930
▁THE	-4931
/0	-4932
economic	-4933
联络	-4934
▁destruction	-4935
:(	-4936
▁either	-4937
名单	-4938
▁chemical	-4939
yond	-4940
才能	-4941
▁concluded	-4942
▁arrest	-4943
替代	-4944
获取	-4945
使其	-4946
rence	-4947
▁beyond	-4948
fact	-4949
▁implications	-4950
的合作	-4951
▁achievement	-4952
▁advoc	-4953
主持	-4954
▁West	-4955
特定	-4956
AP	-4957
的执行情况	-4958
▁IV	-4959
▁Ser	-4960
▁Federal	-4961
▁2007,	-4962
▁paid	-4963
▁follows	-4964
▁majority	-4965
▁First	-4966
真正	-4967
▁Coordination	-4968
持久	-4969
的各种	-4970
▁Follow	-4971
启动	-4972
以外	-4973
iplom	-4974
评论	-4975
▁den	-4976
▁detailed	-4977
▁candid	-4978
▁39.	-4979
在该	-4980
▁statistics	-4981
▁advice	-4982
▁Mo	-4983
▁sal	-4984
判决	-4985
日的	-4986
atform	-4987
▁expenditure	-4988
跨国	-4989
enna	-4990
领导人	-4991
500	-4992
▁invited	-4993
▁UNO	-4994
▁prom	-4995
表决	-4996
ureau	-4997
▁satis	-4998
▁Author	-4999
▁discussed	-5000
问责	-5001
ik	-5002
克斯坦	-5003
▁initial	-5004
未能	-5005
▁40.	-5006
其它	-5007
工人	-5008
▁Ge	-5009
▁Cy	-5010
▁2006,	-5011
巴基	-5012
足够	-5013
犯罪问题	-5014
剥夺	-5015
日期	-5016
34	-5017
▁consistent	-5018
▁conferences	-5019
▁z	-5020
▁requires	-5021
itness	-5022
▁approaches	-5023
富尔	-5024
▁perspec	-5025
▁flow	-5026
日和	-5027
▁perpet	-5028
▁acces	-5029
▁Brazil	-5030
▁Elimin	-5031
▁focused	-5032
▁eradic	-5033
▁goal	-5034
遭到	-5035
巴基斯坦	-5036
补救	-5037
▁pass	-5038
▁percent	-5039
▁traditional	-5040
次区域	-5041
.,	-5042
tes	-5043
的儿童	-5044
tation	-5045
utor	-5046
▁scientific	-5047
▁star	-5048
以及在	-5049
技能	-5050
毒品和	-5051
▁gain	-5052
达尔富尔	-5053
tegration	-5054
处于	-5055
OR	-5056
▁Although	-5057
ple	-5058
▁reached	-5059
▁illegal	-5060
▁lat	-5061
建设和平	-5062
号决议第	-5063
▁cohe	-5064
▁assum	-5065
起来	-5066
延长	-5067
vereign	-5068
▁exploitation	-5069
▁Administration	-5070
网站	-5071
▁opp	-5072
上文	-5073
▁assi	-5074
▁raised	-5075
▁OF	-5076
▁concept	-5077
▁aut	-5078
利益攸关方	-5079
▁sovereign	-5080
▁Bur	-5081
▁forest	-5082
irms	-5083
▁41.	-5084
tise	-5085
ink	-5086
ana	-5087
相当	-5088
▁tools	-5089
▁illicit	-5090
asion	-5091
▁reasons	-5092
▁lit	-5093
▁sufficient	-5094
▁parts	-5095
ature	-5096
女童	-5097
▁und	-5098
▁culture	-5099
方针	-5100
▁construction	-5101
世纪	-5102
1990	-5103
▁doll	-5104
5/	-5105
▁($	-5106
▁Per	-5107
大约	-5108
▁temporary	-5109
托基金	-5110
▁expand	-5111
▁although	-5112
Ch	-5113
男子	-5114
▁markets	-5115
助理	-5116
协作	-5117
袭击	-5118
▁integr	-5119
▁difficul	-5120
▁studies	-5121
▁vehic	-5122
工发	-5123
▁permit	-5124
酌情	-5125
national	-5126
▁UNID	-5127
ects	-5128
▁signed	-5129
常驻联合国	-5130
61	-5131
HC	-5132
▁Rw	-5133
▁2011,	-5134
年以来	-5135
的承诺	-5136
建立一个	-5137
▁character	-5138
▁units	-5139
▁serve	-5140
58	-5141
▁Ph	-5142
▁col	-5143
▁liber	-5144
▁involving	-5145
次级	-5146
▁designed	-5147
▁formal	-5148
瑞士	-5149
仲裁	-5150
▁companies	-5151
▁harmon	-5152
▁subregional	-5153
▁fra	-5154
愿意	-5155
▁publ	-5156
平衡	-5157
▁permanent	-5158
▁paper	-5159
▁criteria	-5160
利坚	-5161
和管理	-5162
▁phase	-5163
有些	-5164
▁owing	-5165
▁Labour	-5166
51	-5167
▁42.	-5168
▁created	-5169
的政治	-5170
有效地	-5171
种族主义	-5172
美利坚	-5173
数目	-5174
比较	-5175
▁tri	-5176
ittees	-5177
▁suggested	-5178
▁disaster	-5179
货物	-5180
届会议上	-5181
▁Prosec	-5182
urs	-5183
利比	-5184
不应	-5185
▁sanctions	-5186
美利坚合	-5187
科特	-5188
▁settlement	-5189
acts	-5190
难民署	-5191
▁consequences	-5192
▁recently	-5193
▁fair	-5194
▁Police	-5195
▁negative	-5196
参加了	-5197
看到	-5198
▁Operations	-5199
利比里亚	-5200
取得了	-5201
roll	-5202
分子	-5203
许可	-5204
habilitation	-5205
年来	-5206
管理和	-5207
▁workshops	-5208
▁Association	-5209
污染	-5210
estern	-5211
gation	-5212
▁mainstream	-5213
意味	-5214
特设	-5215
▁transparency	-5216
剥削	-5217
oph	-5218
审议了	-5219
▁convention	-5220
机构间	-5221
非洲联盟	-5222
▁bu	-5223
▁而	-5224
▁once	-5225
▁Agenda	-5226
tle	-5227
44	-5228
▁Prom	-5229
hood	-5230
raw	-5231
性别平等	-5232
▁mass	-5233
尼西亚	-5234
cont	-5235
团结	-5236
埃及	-5237
的资源	-5238
尼日	-5239
ST	-5240
加拉	-5241
克兰	-5242
▁Vienna	-5243
36	-5244
▁covered	-5245
常设	-5246
更好地	-5247
▁highligh	-5248
▁du	-5249
ocracy	-5250
▁Elimination	-5251
意识	-5252
采取措施	-5253
▁along	-5254
订正	-5255
▁197	-5256
/60	-5257
的原则	-5258
请秘书长	-5259
▁43.	-5260
▁UNFPA	-5261
▁kind	-5262
刑事司法	-5263
▁underst	-5264
▁corpor	-5265
▁task	-5266
后勤	-5267
▁lower	-5268
▁timely	-5269
本组织	-5270
▁1995	-5271
akistan	-5272
下午	-5273
颁布	-5274
规划署	-5275
▁stressed	-5276
当事	-5277
▁donors	-5278
▁launched	-5279
产生的	-5280
国际合作	-5281
39	-5282
▁sched	-5283
▁不过	-5284
时期	-5285
▁compared	-5286
▁sing	-5287
明显	-5288
teenth	-5289
▁prec	-5290
中东	-5291
及其他	-5292
毒品和犯罪问题	-5293
飞机	-5294
集体	-5295
assi	-5296
主流	-5297
强迫	-5298
▁inj	-5299
包括在	-5300
层面	-5301
监察	-5302
ishing	-5303
▁border	-5304
▁obst	-5305
方案预算	-5306
▁fulfil	-5307
迪瓦	-5308
▁commercial	-5309
▁growing	-5310
▁Nuclear	-5311
外部	-5312
的做法	-5313
停止	-5314
▁fle	-5315
至关重要	-5316
生殖	-5317
▁link	-5318
创新	-5319
▁road	-5320
逮捕	-5321
法令	-5322
▁acknow	-5323
▁observations	-5324
与会者	-5325
▁visit	-5326
▁source	-5327
科特迪瓦	-5328
▁45.	-5329
▁skills	-5330
▁renew	-5331
▁项目	-5332
全部	-5333
各地	-5334
▁agricultural	-5335
▁44.	-5336
候选	-5337
初步	-5338
边界	-5339
ways	-5340
▁semin	-5341
▁conflicts	-5342
▁civilians	-5343
ick	-5344
采取了	-5345
似乎	-5346
共同体	-5347
南非	-5348
资格	-5349
▁pred	-5350
第五十	-5351
内亚	-5352
载有	-5353
ij	-5354
公务	-5355
委员会在	-5356
并将	-5357
ximate	-5358
▁professional	-5359
▁Ro	-5360
▁2002,	-5361
▁assessments	-5362
现行	-5363
几内亚	-5364
意味着	-5365
▁Parliament	-5366
▁2004,	-5367
38	-5368
▁useful	-5369
拉夫	-5370
gest	-5371
▁Mexico	-5372
▁Drug	-5373
生态	-5374
马拉	-5375
▁leave	-5376
▁jo	-5377
lusions	-5378
▁France	-5379
集中	-5380
▁come	-5381
taining	-5382
▁委员会还	-5383
▁Legal	-5384
▁presence	-5385
▁deployment	-5386
▁Eth	-5387
▁exce	-5388
▁Dar	-5389
▁confid	-5390
裁决	-5391
▁Lebanon	-5392
▁near	-5393
▁Middle	-5394
最低	-5395
ventions	-5396
私人	-5397
▁regul	-5398
▁mandates	-5399
sy	-5400
▁independence	-5401
59	-5402
racts	-5403
▁Community	-5404
罗马	-5405
发展的	-5406
bur	-5407
requ	-5408
▁Kos	-5409
46	-5410
▁entire	-5411
▁Gender	-5412
▁bar	-5413
部门的	-5414
▁Rom	-5415
▁constitution	-5416
失踪	-5417
▁Somalia	-5418
子女	-5419
南部	-5420
▁NGOs	-5421
▁risks	-5422
无论	-5423
▁movement	-5424
▁minimum	-5425
▁2012,	-5426
美利坚合众国	-5427
▁UNIDO	-5428
emic	-5429
执行局	-5430
▁2003,	-5431
ental	-5432
在联合国	-5433
经济和社会	-5434
养恤	-5435
▁clearly	-5436
▁ir	-5437
▁expl	-5438
▁face	-5439
▁Reques	-5440
委员会主席	-5441
▁compris	-5442
▁enhancing	-5443
----	-5444
▁46.	-5445
▁Promo	-5446
▁Tim	-5447
▁Strategy	-5448
▁trust	-5449
权的	-5450
▁Proc	-5451
ovo	-5452
▁recruitment	-5453
信托基金	-5454
▁asked	-5455
的意见	-5456
▁safegu	-5457
的结果	-5458
卫星	-5459
▁improvement	-5460
sure	-5461
itions	-5462
▁industrial	-5463
的挑战	-5464
▁log	-5465
▁resid	-5466
▁operating	-5467
开放	-5468
哥伦	-5469
▁reflect	-5470
透明度	-5471
ximately	-5472
框架内	-5473
▁各	-5474
ciliation	-5475
▁Policy	-5476
▁empower	-5477
▁Budget	-5478
▁mentioned	-5479
▁et	-5480
▁involvement	-5481
的妇女	-5482
国际组织	-5483
IF	-5484
▁alternative	-5485
▁super	-5486
以英	-5487
和建议	-5488
▁ability	-5489
▁half	-5490
▁appear	-5491
57	-5492
总额	-5493
核查	-5494
68	-5495
重建	-5496
▁entry	-5497
爆炸	-5498
资本	-5499
AN	-5500
哥伦比亚	-5501
多样性	-5502
▁3,	-5503
另一	-5504
▁Initi	-5505
数据库	-5506
▁expertise	-5507
▁witness	-5508
bour	-5509
阿根	-5510
塞拉	-5511
▁47.	-5512
▁draf	-5513
▁migration	-5514
阿根廷	-5515
lined	-5516
海地	-5517
干预	-5518
工资	-5519
妇女地位	-5520
▁finance	-5521
▁reproduc	-5522
ama	-5523
行动的	-5524
建筑	-5525
.4/	-5526
日期间	-5527
▁interpret	-5528
▁North	-5529
▁honour	-5530
技术和	-5531
▁mind	-5532
▁diplom	-5533
暴力侵害	-5534
文化权利	-5535
▁加强	-5536
▁48.	-5537
▁home	-5538
▁trial	-5539
47	-5540
政府和	-5541
▁measure	-5542
▁guarantee	-5543
受益	-5544
期限	-5545
▁Inv	-5546
▁collective	-5547
istered	-5548
▁intended	-5549
▁cal	-5550
▁reduced	-5551
ica	-5552
▁prov	-5553
▁look	-5554
尔兰	-5555
以期	-5556
▁Fren	-5557
▁hope	-5558
▁duty	-5559
制造	-5560
挪威	-5561
▁qual	-5562
不受	-5563
▁Mor	-5564
载于	-5565
osl	-5566
居住	-5567
ously	-5568
家庭暴力	-5569
▁judge	-5570
▁religion	-5571
▁Kosovo	-5572
▁Members	-5573
爱尔兰	-5574
▁工作组	-5575
大部分	-5576
▁Rules	-5577
HCHR	-5578
▁cho	-5579
▁absence	-5580
同一	-5581
▁Sa	-5582
▁Authority	-5583
▁Officer	-5584
途径	-5585
失业	-5586
abit	-5587
▁likely	-5588
▁closely	-5589
大会第六十	-5590
tivity	-5591
rete	-5592
斯拉夫	-5593
▁senior	-5594
大利	-5595
攻击	-5596
▁single	-5597
预测	-5598
iss	-5599
▁approval	-5600
环境署	-5601
额外	-5602
1994	-5603
▁所有	-5604
▁fig	-5605
ugosl	-5606
或其他	-5607
66	-5608
▁students	-5609
差距	-5610
一般性	-5611
弹药	-5612
行政和	-5613
世界银行	-5614
哪些	-5615
指定	-5616
▁Requests	-5617
几乎	-5618
▁depend	-5619
▁despite	-5620
废物	-5621
▁University	-5622
rep	-5623
意大利	-5624
▁Framework	-5625
▁welcomes	-5626
▁Germany	-5627
形成	-5628
▁Chief	-5629
▁Yugosl	-5630
的执行	-5631
▁eas	-5632
投入	-5633
转移	-5634
▁Pakistan	-5635
irth	-5636
▁prepare	-5637
ancial	-5638
▁committee	-5639
一年	-5640
▁limit	-5641
bo	-5642
国家和	-5643
监测和	-5644
▁本报告	-5645
riage	-5646
着重	-5647
情报	-5648
▁Bureau	-5649
更多的	-5650
▁Guine	-5651
为基础	-5652
与其他	-5653
随着	-5654
南斯拉夫	-5655
可能会	-5656
▁mor	-5657
▁efficient	-5658
相同	-5659
ifically	-5660
有组织	-5661
▁believe	-5662
法案	-5663
197	-5664
表现	-5665
印度尼西亚	-5666
32	-5667
active	-5668
事规则	-5669
▁inclusion	-5670
▁delay	-5671
-201	-5672
istration	-5673
担保	-5674
▁Wel	-5675
商品	-5676
▁Princip	-5677
▁radi	-5678
▁participated	-5679
▁Intern	-5680
▁offences	-5681
ourn	-5682
朝鲜	-5683
▁definition	-5684
▁rapid	-5685
▁Tw	-5686
工程处	-5687
▁enhanced	-5688
预防犯罪	-5689
正如	-5690
▁longer	-5691
人道主义法	-5692
发展援助	-5693
技术合作	-5694
▁Assistance	-5695
那么	-5696
itim	-5697
-5	-5698
取得的进展	-5699
orial	-5700
▁accep	-5701
发展中国家的	-5702
outhern	-5703
▁explain	-5704
▁attacks	-5705
组成部分	-5706
指示	-5707
▁对于	-5708
▁extreme	-5709
政府的	-5710
▁later	-5711
▁reducing	-5712
在这方面	-5713
▁conventions	-5714
年人	-5715
普通	-5716
▁Australia	-5717
强制	-5718
▁报告	-5719
争取	-5720
满意	-5721
容忍	-5722
的项目	-5723
▁Experts	-5724
▁combating	-5725
69	-5726
rain	-5727
的工作人员	-5728
原子能机构	-5729
第六	-5730
ishes	-5731
▁spons	-5732
hers	-5733
▁withd	-5734
▁too	-5735
▁35	-5736
消除对妇女	-5737
▁summary	-5738
发展和	-5739
▁49.	-5740
▁50.	-5741
用途	-5742
▁为此	-5743
▁urged	-5744
▁lar	-5745
▁leading	-5746
▁occupation	-5747
解决办法	-5748
▁Ref	-5749
▁times	-5750
乌克兰	-5751
共识	-5752
▁Add	-5753
▁Recalling	-5754
EM	-5755
▁racial	-5756
CP	-5757
▁recognition	-5758
▁fight	-5759
严格	-5760
遗憾	-5761
▁emerging	-5762
▁extended	-5763
▁shared	-5764
sych	-5765
▁Kuwait	-5766
问题国际	-5767
和解	-5768
大使	-5769
▁possibility	-5770
▁industry	-5771
包容	-5772
▁Territory	-5773
以英语发言	-5774
▁Peacekeeping	-5775
▁Technical	-5776
依然	-5777
▁reviewed	-5778
▁特别报告员	-5779
▁Med	-5780
外勤	-5781
▁complement	-5782
enders	-5783
▁planned	-5784
帝汶	-5785
▁urgent	-5786
附属	-5787
▁conclusion	-5788
WA	-5789
这一点	-5790
的具体	-5791
▁money	-5792
应在	-5793
istics	-5794
事务部	-5795
ison	-5796
ody	-5797
ians	-5798
▁Est	-5799
▁Exp	-5800
▁rehabilitation	-5801
更新	-5802
▁(1	-5803
▁Technology	-5804
▁coordinated	-5805
原因是	-5806
资源的	-5807
▁sl	-5808
aces	-5809
aly	-5810
工发组织	-5811
argets	-5812
人权的	-5813
荷兰	-5814
▁另外	-5815
▁soon	-5816
那样	-5817
▁按照	-5818
▁stage	-5819
返回	-5820
中期	-5821
死刑	-5822
▁500	-5823
igration	-5824
的联合国	-5825
-2	-5826
▁undertake	-5827
▁Guinea	-5828
津贴	-5829
化和	-5830
▁personal	-5831
▁EU	-5832
语文	-5833
最大	-5834
▁Gaz	-5835
))	-5836
志愿	-5837
ighth	-5838
所述期间	-5839
▁emphasized	-5840
▁strengthened	-5841
基地	-5842
▁concrete	-5843
高专	-5844
ervation	-5845
增加了	-5846
流离失所者	-5847
制止	-5848
▁described	-5849
五十	-5850
ircraft	-5851
▁democratic	-5852
▁live	-5853
并为	-5854
RC	-5855
将于	-5856
▁Weapons	-5857
群岛	-5858
AD	-5859
▁compar	-5860
科技	-5861
▁outcomes	-5862
▁governments	-5863
(1	-5864
▁payment	-5865
▁forced	-5866
coming	-5867
▁refugee	-5868
sc	-5869
出了	-5870
付款	-5871
▁conclusions	-5872
反恐	-5873
▁beginning	-5874
▁grant	-5875
ane	-5876
约束	-5877
▁Nig	-5878
▁actively	-5879
▁defined	-5880
▁Cor	-5881
▁resulted	-5882
全世界	-5883
的时间	-5884
打算	-5885
营养	-5886
▁其他	-5887
erve	-5888
▁51.	-5889
▁intern	-5890
hest	-5891
▁never	-5892
雇员	-5893
62	-5894
任期	-5895
▁2000,	-5896
▁Financial	-5897
▁Haiti	-5898
III	-5899
▁Letter	-5900
分享	-5901
影响的	-5902
▁fuel	-5903
展开	-5904
ck	-5905
▁highlighted	-5906
▁这是	-5907
区域和	-5908
▁52.	-5909
赞扬	-5910
▁elected	-5911
-2009	-5912
ying	-5913
▁seem	-5914
▁French	-5915
▁targets	-5916
可行	-5917
高专办	-5918
号文件	-5919
特别委员会	-5920
abitat	-5921
▁resum	-5922
对该	-5923
first	-5924
▁向	-5925
情况的	-5926
aria	-5927
mbass	-5928
附件一	-5929
中所	-5930
根本	-5931
disc	-5932
▁har	-5933
东帝汶	-5934
▁election	-5935
工作方案	-5936
特别会议	-5937
实际上	-5938
56	-5939
完整	-5940
inth	-5941
发生的	-5942
▁generally	-5943
经过	-5944
更为	-5945
毒品	-5946
▁occupied	-5947
▁Statis	-5948
▁appo	-5949
▁geograph	-5950
▁membership	-5951
▁options	-5952
▁mort	-5953
咨委会	-5954
▁2001,	-5955
▁elabor	-5956
和安全	-5957
▁legitim	-5958
/10	-5959
不同的	-5960
▁withdraw	-5961
▁miti	-5962
▁types	-5963
▁Training	-5964
tically	-5965
出的	-5966
54	-5967
利昂	-5968
▁engaged	-5969
▁words	-5970
▁credit	-5971
▁grounds	-5972
▁ord	-5973
报表	-5974
暴力行为	-5975
▁Ky	-5976
reland	-5977
▁Palestine	-5978
iles	-5979
通信技术	-5980
▁53.	-5981
几个	-5982
▁giv	-5983
信任	-5984
▁increasingly	-5985
享受	-5986
▁Egy	-5987
▁dang	-5988
▁Asian	-5989
Un	-5990
发布	-5991
▁Cultural	-5992
▁solutions	-5993
被告	-5994
ierra	-5995
一般事务	-5996
即使	-5997
贷款	-5998
lier	-5999
相信	-6000
殖民	-6001
塞拉利昂	-6002
述了	-6003
▁documentation	-6004
劳工组织	-6005
▁scale	-6006
▁depart	-6007
防治	-6008
▁internationally	-6009
▁always	-6010
▁detail	-6011
▁determine	-6012
摩洛	-6013
月在	-6014
在于	-6015
▁endors	-6016
诸如	-6017
▁remaining	-6018
▁accounts	-6019
人权事务高级专员	-6020
有的	-6021
中非	-6022
▁languages	-6023
▁Cham	-6024
▁又	-6025
lying	-6026
▁oil	-6027
▁Western	-6028
化学品	-6029
▁Viol	-6030
▁medium	-6031
的方案	-6032
▁comment	-6033
kra	-6034
lation	-6035
▁二	-6036
▁Internet	-6037
iring	-6038
▁Great	-6039
▁lives	-6040
拟定	-6041
rucial	-6042
▁namely	-6043
luding	-6044
▁electronic	-6045
▁causes	-6046
庇护	-6047
▁ICT	-6048
43	-6049
▁Te	-6050
次级方案	-6051
▁Space	-6052
▁threats	-6053
▁imposed	-6054
respon	-6055
▁datab	-6056
▁max	-6057
▁collection	-6058
thing	-6059
▁estimates	-6060
▁aircraft	-6061
▁headquarters	-6062
并向	-6063
进口	-6064
SR	-6065
▁其	-6066
▁mainly	-6067
▁component	-6068
▁difficulties	-6069
rect	-6070
▁Fam	-6071
妇女在	-6072
▁注意到	-6073
▁get	-6074
▁Trust	-6075
▁donor	-6076
▁IN	-6077
▁Supp	-6078
包含	-6079
▁ten	-6080
第七	-6081
weapon	-6082
▁When	-6083
▁Audit	-6084
▁corruption	-6085
inary	-6086
摩洛哥	-6087
荒漠	-6088
▁approximately	-6089
▁applications	-6090
▁subpro	-6091
条规定	-6092
▁crucial	-6093
书面	-6094
▁Lib	-6095
看法	-6096
jan	-6097
为止	-6098
urd	-6099
▁Pop	-6100
日星期	-6101
▁Leone	-6102
现金	-6103
保护和	-6104
▁Eng	-6105
▁encourages	-6106
石油	-6107
▁wor	-6108
▁followed	-6109
▁Ques	-6110
吁请	-6111
权利的	-6112
高度	-6113
▁confidence	-6114
▁science	-6115
武装部队	-6116
▁construc	-6117
▁flo	-6118
▁第二	-6119
有组织犯罪	-6120
inding	-6121
▁freedoms	-6122
事实上	-6123
▁Indones	-6124
人员和	-6125
▁54.	-6126
US	-6127
对此	-6128
迄今	-6129
▁centre	-6130
路斯	-6131
▁outp	-6132
塞浦	-6133
塞浦路斯	-6134
▁relative	-6135
调动	-6136
唯一	-6137
逐步	-6138
▁一个	-6139
了关于	-6140
▁thir	-6141
武器和	-6142
▁你	-6143
ton	-6144
▁pric	-6145
▁specifically	-6146
赋予	-6147
试验	-6148
ins	-6149
▁dou	-6150
udge	-6151
后的	-6152
▁Sierra	-6153
行预	-6154
国集团	-6155
earch	-6156
▁Bas	-6157
▁Ireland	-6158
很大	-6159
▁engage	-6160
依赖	-6161
▁caused	-6162
licit	-6163
派遣	-6164
尽可能	-6165
arity	-6166
实地	-6167
有利于	-6168
西非	-6169
▁Rwanda	-6170
燃料	-6171
的安全	-6172
探讨	-6173
▁;	-6174
titud	-6175
▁setting	-6176
▁networks	-6177
▁perspective	-6178
▁Turkey	-6179
有人	-6180
驱逐	-6181
▁Many	-6182
联合国宪章	-6183
▁deliber	-6184
fare	-6185
潜在	-6186
vance	-6187
.9	-6188
的方法	-6189
▁chang	-6190
▁island	-6191
争端	-6192
的全球	-6193
阻碍	-6194
▁55.	-6195
-2007	-6196
▁联	-6197
▁OHCHR	-6198
illing	-6199
行预咨委会	-6200
公布	-6201
西兰	-6202
▁forth	-6203
族裔	-6204
段中	-6205
▁influ	-6206
伤害	-6207
▁contributed	-6208
PT	-6209
不平等	-6210
▁relief	-6211
ma	-6212
这方面的	-6213
惩罚	-6214
ening	-6215
▁representation	-6216
▁fost	-6217
▁test	-6218
▁reforms	-6219
的基本	-6220
atute	-6221
ung	-6222
53	-6223
旅游	-6224
▁responses	-6225
-2005	-6226
▁democracy	-6227
▁household	-6228
▁Ministers	-6229
ufact	-6230
▁shown	-6231
▁inspec	-6232
▁placed	-6233
父母	-6234
显然	-6235
斯洛	-6236
rea	-6237
▁cyc	-6238
▁hop	-6239
▁degra	-6240
▁start	-6241
▁Prof	-6242
▁Incre	-6243
埃塞	-6244
新西兰	-6245
▁2013,	-6246
▁migrants	-6247
的有关	-6248
▁actual	-6249
▁seen	-6250
▁cause	-6251
lict	-6252
广泛的	-6253
>、<	-6254
不到	-6255
▁declaration	-6256
41	-6257
▁survey	-6258
涵盖	-6259
▁Ukra	-6260
▁Argent	-6261
分类	-6262
道路	-6263
▁Liberia	-6264
业绩	-6265
俄比亚	-6266
▁dealing	-6267
▁fourth	-6268
▁cooperate	-6269
埃塞俄比亚	-6270
fur	-6271
SP	-6272
可能性	-6273
▁subsequent	-6274
lease	-6275
出版物	-6276
▁ratification	-6277
▁56.	-6278
third	-6279
▁seven	-6280
▁intell	-6281
事务厅	-6282
▁cle	-6283
这一问题	-6284
proliferation	-6285
▁announ	-6286
riti	-6287
尼日利亚	-6288
▁dollars	-6289
▁jus	-6290
联合会	-6291
▁participating	-6292
unicip	-6293
道德	-6294
瑞典	-6295
的基础上	-6296
umb	-6297
讨论会	-6298
▁raise	-6299
▁series	-6300
加沙	-6301
South	-6302
处罚	-6303
▁investigations	-6304
▁susp	-6305
AW	-6306
的一般	-6307
亚太	-6308
▁takes	-6309
eals	-6310
usal	-6311
▁prosecution	-6312
全体会议	-6313
差异	-6314
▁contracts	-6315
▁秘书处	-6316
United	-6317
▁unem	-6318
只是	-6319
灵活	-6320
-2015	-6321
▁damage	-6322
相比	-6323
4)	-6324
Rev	-6325
rators	-6326
▁findings	-6327
▁Research	-6328
这个问题	-6329
所有国家	-6330
.10	-6331
▁1998,	-6332
结合	-6333
emor	-6334
的数据	-6335
人权高专办	-6336
ranted	-6337
eng	-6338
▁constitute	-6339
就此	-6340
▁inclusive	-6341
▁Provision	-6342
▁highest	-6343
▁exec	-6344
-2011	-6345
所作的	-6346
滥用	-6347
iop	-6348
acement	-6349
actions	-6350
上午	-6351
小岛屿	-6352
versi	-6353
审理	-6354
感染	-6355
greg	-6356
▁competition	-6357
▁insurance	-6358
gment	-6359
找到	-6360
▁33	-6361
▁1999,	-6362
秘书长关于	-6363
赞同	-6364
一切形式	-6365
▁territories	-6366
监管	-6367
▁57.	-6368
▁Those	-6369
▁理事会	-6370
▁Islands	-6371
▁wid	-6372
▁disapp	-6373
教科	-6374
议题	-6375
▁panel	-6376
▁statistical	-6377
ague	-6378
vide	-6379
itzer	-6380
▁emissions	-6381
DG	-6382
ployed	-6383
▁Cap	-6384
▁Field	-6385
平台	-6386
取消	-6387
▁birth	-6388
布隆	-6389
▁Third	-6390
毒品和犯罪问题办公室	-6391
▁say	-6392
▁norms	-6393
oke	-6394
▁37	-6395
▁34	-6396
▁discuss	-6397
▁determined	-6398
职等	-6399
▁urges	-6400
▁tal	-6401
进步	-6402
▁obstac	-6403
▁represented	-6404
▁dri	-6405
▁advisory	-6406
现代	-6407
▁victim	-6408
▁39	-6409
储存	-6410
布隆迪	-6411
作出的	-6412
▁Deputy	-6413
负担	-6414
▁Colomb	-6415
▁matern	-6416
的义务	-6417
▁sound	-6418
▁thematic	-6419
itzerland	-6420
rid	-6421
▁三	-6422
▁known	-6423
▁registration	-6424
▁respectively	-6425
▁fis	-6426
▁Def	-6427
▁同样	-6428
▁Darfur	-6429
解除	-6430
▁Gaza	-6431
阿尔及	-6432
示范	-6433
▁Conc	-6434
▁mal	-6435
87	-6436
ict	-6437
▁77	-6438
融入	-6439
年底	-6440
的战略	-6441
▁run	-6442
▁psych	-6443
▁58.	-6444
▁mother	-6445
hol	-6446
了对	-6447
国际人权	-6448
▁Table	-6449
▁consumption	-6450
执行主任	-6451
▁conting	-6452
阁下	-6453
▁flex	-6454
▁Guid	-6455
▁cash	-6456
▁emphasis	-6457
现实	-6458
▁minorities	-6459
▁After	-6460
▁commission	-6461
▁安全理事会	-6462
▁little	-6463
resolution	-6464
▁authorized	-6465
▁同时	-6466
侵犯人权	-6467
估计数	-6468
flict	-6469
▁published	-6470
▁reproductive	-6471
▁category	-6472
手册	-6473
300	-6474
儿童和	-6475
ee	-6476
▁这个	-6477
议事规则	-6478
少数群体	-6479
52	-6480
▁almost	-6481
实践	-6482
asters	-6483
▁Partnership	-6484
▁reintegration	-6485
融资	-6486
单独	-6487
dem	-6488
▁Recogn	-6489
▁base	-6490
ump	-6491
▁waste	-6492
▁sharing	-6493
cing	-6494
▁Pri	-6495
DA	-6496
这样做	-6497
▁Sal	-6498
▁trends	-6499
ground	-6500
的环境	-6501
▁mutual	-6502
作出了	-6503
▁turn	-6504
▁eliminate	-6505
▁Staff	-6506
效力	-6507
oring	-6508
utri	-6509
arents	-6510
得以	-6511
减轻	-6512
HRC	-6513
▁EC	-6514
▁allegations	-6515
的资金	-6516
公务员	-6517
▁courses	-6518
▁acknowled	-6519
▁Zeal	-6520
IP	-6521
▁安理会	-6522
▁Zealand	-6523
▁categories	-6524
▁Indigenous	-6525
▁32	-6526
herlands	-6527
atell	-6528
建议的	-6529
▁Independ	-6530
ables	-6531
▁creating	-6532
正常	-6533
国防	-6534
▁candidates	-6535
▁solid	-6536
▁consent	-6537
udic	-6538
清楚	-6539
▁organizational	-6540
AO	-6541
▁美国	-6542
人在	-6543
法律和	-6544
▁Fac	-6545
▁deliver	-6546
主要是	-6547
▁必须	-6548
ery	-6549
重返	-6550
▁促进	-6551
▁punishment	-6552
▁Turk	-6553
除其他	-6554
促请	-6555
bi	-6556
▁38	-6557
▁populations	-6558
42	-6559
▁59.	-6560
临时议程	-6561
教训	-6562
开展的	-6563
▁socio	-6564
▁proportion	-6565
谴责	-6566
部长级	-6567
▁attrib	-6568
▁60.	-6569
相应	-6570
unte	-6571
▁integrity	-6572
▁agriculture	-6573
表达	-6574
态度	-6575
▁marriage	-6576
▁Op	-6577
▁inp	-6578
▁engagement	-6579
▁round	-6580
▁4,	-6581
▁offer	-6582
和方案	-6583
prus	-6584
▁accepted	-6585
▁advis	-6586
航空	-6587
▁lessons	-6588
▁evalu	-6589
▁requirement	-6590
场所	-6591
过境	-6592
CD	-6593
百分	-6594
▁Refuge	-6595
ats	-6596
voire	-6597
尼亚和	-6598
▁demo	-6599
类型	-6600
nes	-6601
▁55	-6602
▁written	-6603
▁Monitor	-6604
▁endorsed	-6605
▁disability	-6606
▁dev	-6607
会议和	-6608
设立一个	-6609
类别	-6610
▁availability	-6611
▁许多	-6612
▁defence	-6613
▁presid	-6614
▁welcome	-6615
▁Sup	-6616
▁prices	-6617
▁values	-6618
外层	-6619
▁neigh	-6620
并非	-6621
的责任	-6622
难以	-6623
▁appointed	-6624
公共部门	-6625
▁Indonesia	-6626
贩卖	-6627
确立	-6628
外层空间	-6629
委员会和	-6630
arc	-6631
▁structures	-6632
发起	-6633
▁Obs	-6634
使用的	-6635
人居	-6636
不再	-6637
▁截至	-6638
▁Following	-6639
▁supplement	-6640
了一项	-6641
▁Bang	-6642
▁COP	-6643
ylum	-6644
▁produced	-6645
▁frameworks	-6646
▁Humanitarian	-6647
对这些	-6648
▁Eff	-6649
旅行	-6650
▁Ethiop	-6651
▁completion	-6652
▁webs	-6653
特派团的	-6654
▁Financing	-6655
▁expression	-6656
定居	-6657
将会	-6658
▁affairs	-6659
▁Internal	-6660
▁depri	-6661
▁separate	-6662
减贫	-6663
▁marine	-6664
▁manufact	-6665
年和	-6666
▁Cyprus	-6667
监督厅	-6668
▁Bos	-6669
▁Vol	-6670
征聘	-6671
自治	-6672
交通	-6673
▁inequ	-6674
讨论了	-6675
▁Moroc	-6676
和加勒比	-6677
tified	-6678
容易	-6679
▁offence	-6680
转型	-6681
发了	-6682
▁constra	-6683
icro	-6684
上升	-6685
▁Prosecutor	-6686
▁preventing	-6687
▁1994	-6688
引渡	-6689
并确保	-6690
豁免	-6691
死亡率	-6692
▁sche	-6693
▁learned	-6694
▁visits	-6695
Al	-6696
监禁	-6697
ened	-6698
的关于	-6699
互动	-6700
▁modern	-6701
AEA	-6702
巩固	-6703
▁sought	-6704
▁61.	-6705
因而	-6706
分摊	-6707
▁gross	-6708
克罗	-6709
▁faced	-6710
和非	-6711
推进	-6712
人士	-6713
欧元	-6714
的文件	-6715
弱势	-6716
▁significantly	-6717
蒙特	-6718
第二次	-6719
缅甸	-6720
年至	-6721
▁secondary	-6722
▁Initiative	-6723
到了	-6724
▁failure	-6725
的人权	-6726
一体	-6727
之下	-6728
▁frequ	-6729
言论	-6730
▁allowed	-6731
▁rise	-6732
▁Egypt	-6733
airo	-6734
set	-6735
该区域	-6736
▁considers	-6737
gol	-6738
状态	-6739
onia	-6740
▁决定	-6741
伊斯兰共和国	-6742
▁extend	-6743
/11	-6744
▁62.	-6745
▁Prepar	-6746
可靠	-6747
▁side	-6748
▁conform	-6749
注重	-6750
一系列	-6751
▁pregn	-6752
代理	-6753
法规	-6754
▁internally	-6755
生育	-6756
arily	-6757
婚姻	-6758
第三十	-6759
▁why	-6760
▁advant	-6761
▁fire	-6762
▁Strengthen	-6763
妨碍	-6764
东道	-6765
▁secure	-6766
▁36	-6767
▁aud	-6768
▁unit	-6769
▁Cte	-6770
▁48	-6771
▁oversight	-6772
危害	-6773
▁prol	-6774
my	-6775
兴趣	-6776
-1	-6777
年代	-6778
决心	-6779
▁大	-6780
▁Port	-6781
▁electoral	-6782
▁identification	-6783
-2013	-6784
forced	-6785
措施的	-6786
▁Swed	-6787
▁tasks	-6788
成就	-6789
▁subprogramme	-6790
▁What	-6791
▁experiences	-6792
调解	-6793
TO	-6794
▁fil	-6795
▁targeted	-6796
▁也	-6797
▁Food	-6798
ertain	-6799
ded	-6800
修正案	-6801
极端	-6802
▁components	-6803
年轻	-6804
筹措	-6805
ua	-6806
%)	-6807
混合	-6808
▁这项	-6809
澄清	-6810
LO	-6811
车辆	-6812
▁Vice	-6813
▁expenditures	-6814
▁parents	-6815
用户	-6816
with	-6817
ali	-6818
▁Nam	-6819
设立了	-6820
▁convic	-6821
▁tes	-6822
▁embar	-6823
▁Burund	-6824
免费	-6825
阿尔及利亚	-6826
▁recognize	-6827
青少年	-6828
干达	-6829
主席团	-6830
地球	-6831
核可	-6832
使得	-6833
乌干达	-6834
值得	-6835
igned	-6836
▁stri	-6837
via	-6838
▁substantial	-6839
以往	-6840
政策的	-6841
▁300	-6842
▁AN	-6843
合并	-6844
▁week	-6845
在国际	-6846
▁全球	-6847
▁syn	-6848
Sec	-6849
care	-6850
▁chapter	-6851
▁Subcomm	-6852
菲律	-6853
的费用	-6854
所做	-6855
▁Respon	-6856
候选人	-6857
菲律宾	-6858
ounted	-6859
▁going	-6860
nia	-6861
第四十	-6862
▁affect	-6863
效益	-6864
巴勒斯坦人民	-6865
▁dissemination	-6866
信息和通信技术	-6867
▁现在	-6868
衡量	-6869
▁Prime	-6870
周期	-6871
▁hard	-6872
▁Supreme	-6873
智利	-6874
意愿	-6875
▁Monitoring	-6876
▁contains	-6877
ands	-6878
开支	-6879
▁Status	-6880
utrition	-6881
波斯	-6882
▁fields	-6883
ask	-6884
▁mortality	-6885
▁IM	-6886
和加强	-6887
▁enterprises	-6888
空缺	-6889
▁added	-6890
▁content	-6891
学院	-6892
▁SB	-6893
经社会	-6894
▁complaints	-6895
交换	-6896
▁Netherlands	-6897
▁empowerment	-6898
▁它们	-6899
▁observed	-6900
▁nationality	-6901
角度	-6902
▁Switzerland	-6903
▁mainstreaming	-6904
促使	-6905
▁left	-6906
▁表	-6907
1993	-6908
aging	-6909
owers	-6910
▁resident	-6911
取决	-6912
除了	-6913
ha	-6914
▁mobil	-6915
小时	-6916
并没有	-6917
▁observers	-6918
▁63.	-6919
▁hosp	-6920
▁farm	-6921
▁amendments	-6922
▁stock	-6923
/8	-6924
程度上	-6925
ournal	-6926
计划的	-6927
▁Of	-6928
▁meaning	-6929
▁intention	-6930
celer	-6931
tific	-6932
▁think	-6933
▁executive	-6934
以后	-6935
▁enabling	-6936
▁analy	-6937
▁Northern	-6938
▁45	-6939
▁elimination	-6940
压力	-6941
职权	-6942
取决于	-6943
阿塞	-6944
▁委员会建议	-6945
▁records	-6946
unications	-6947
iable	-6948
▁margin	-6949
的区域	-6950
▁ratified	-6951
rable	-6952
经委会	-6953
oles	-6954
▁Bar	-6955
▁sovereignty	-6956
教科文	-6957
▁teac	-6958
▁discrimin	-6959
销售	-6960
▁functioning	-6961
拜疆	-6962
▁Ukraine	-6963
▁want	-6964
阿塞拜疆	-6965
并对	-6966
核裁军	-6967
▁nine	-6968
▁outstanding	-6969
的关键	-6970
▁organs	-6971
正规	-6972
规约	-6973
信仰	-6974
▁commod	-6975
▁granted	-6976
▁accounting	-6977
▁sea	-6978
释放	-6979
政党	-6980
uled	-6981
▁UNODC	-6982
实现千年发展目标	-6983
▁鼓励	-6984
劳动力	-6985
▁64.	-6986
▁direc	-6987
中有	-6988
和不	-6989
▁type	-6990
▁protocol	-6991
的各	-6992
▁Draft	-6993
建立了	-6994
军队	-6995
教师	-6996
这样的	-6997
etary	-6998
▁Governing	-6999
哈拉	-7000
回应	-7001
▁percentage	-7002
联合国各	-7003
ansion	-7004
利比亚	-7005
▁holding	-7006
政治权利	-7007
推广	-7008
sitive	-7009
无核武器	-7010
ressive	-7011
▁非洲	-7012
▁咨询委员会	-7013
▁launch	-7014
▁asylum	-7015
▁Norway	-7016
认可	-7017
▁reservations	-7018
▁Ivoire	-7019
▁`	-7020
▁severe	-7021
▁deg	-7022
▁Population	-7023
▁listed	-7024
会议室	-7025
一届会议	-7026
▁keep	-7027
最佳做法	-7028
▁Slo	-7029
用的	-7030
▁arising	-7031
▁argu	-7032
▁amended	-7033
ompl	-7034
▁Chairperson	-7035
▁Georg	-7036
▁Control	-7037
▁tele	-7038
urrent	-7039
ived	-7040
我的	-7041
▁IP	-7042
▁merc	-7043
▁Particip	-7044
▁Recommend	-7045
地理	-7046
▁My	-7047
▁municip	-7048
▁coverage	-7049
玻利	-7050
limin	-7051
▁constitutional	-7052
ESCO	-7053
伊朗伊斯兰共和国	-7054
▁ran	-7055
医院	-7056
▁san	-7057
问题特别报告员	-7058
▁Principles	-7059
进展情况	-7060
reach	-7061
▁restrictions	-7062
而是	-7063
放在	-7064
▁highly	-7065
akh	-7066
国政府	-7067
▁dim	-7068
立特	-7069
mon	-7070
以及其他	-7071
mentioned	-7072
▁diseases	-7073
拉圭	-7074
▁regulatory	-7075
▁pil	-7076
▁sustainability	-7077
▁Italy	-7078
HO	-7079
▁immediately	-7080
会上	-7081
战斗	-7082
证实	-7083
▁correspon	-7084
▁makes	-7085
▁updated	-7086
▁enjoyment	-7087
在此	-7088
▁tr	-7089
▁65.	-7090
▁妇女	-7091
▁competent	-7092
▁competi	-7093
▁Fifth	-7094
定于	-7095
报道	-7096
▁equitable	-7097
谅解	-7098
渔业	-7099
的不	-7100
大幅	-7101
▁teams	-7102
▁5,	-7103
▁decent	-7104
▁Lebanese	-7105
▁accompl	-7106
bai	-7107
▁Ken	-7108
liminary	-7109
▁57	-7110
食物	-7111
UR	-7112
IOS	-7113
oto	-7114
▁Sim	-7115
▁supports	-7116
enses	-7117
vation	-7118
另外	-7119
总理	-7120
南南	-7121
▁reconciliation	-7122
小型	-7123
▁site	-7124
装备	-7125
400	-7126
zerbai	-7127
▁indicate	-7128
格鲁	-7129
oler	-7130
▁Chamber	-7131
要素	-7132
▁vehicles	-7133
▁是	-7134
地亚	-7135
▁vital	-7136
两项	-7137
zerbaijan	-7138
厄立特	-7139
▁minority	-7140
和实施	-7141
▁diplomatic	-7142
▁Sever	-7143
▁70	-7144
即将	-7145
得到了	-7146
▁presentation	-7147
厄立特里亚	-7148
▁existence	-7149
阿拉伯叙利亚	-7150
肯尼亚	-7151
▁considering	-7152
▁Spain	-7153
被拘留	-7154
▁parliament	-7155
▁formulation	-7156
▁drugs	-7157
ere	-7158
avia	-7159
ruct	-7160
的标准	-7161
之中	-7162
1991	-7163
tieth	-7164
▁happ	-7165
98	-7166
▁port	-7167
九届会议	-7168
▁realization	-7169
▁commissions	-7170
▁amounts	-7171
.6	-7172
▁theme	-7173
▁PR	-7174
▁Mechan	-7175
geting	-7176
人道主义援助	-7177
吉亚	-7178
表示关切	-7179
荒漠化	-7180
▁flows	-7181
受理	-7182
▁der	-7183
▁forty	-7184
年在	-7185
▁learning	-7186
▁facilitating	-7187
▁Several	-7188
培训和	-7189
▁concluding	-7190
anish	-7191
▁Argentina	-7192
的程序	-7193
▁Saf	-7194
ula	-7195
▁attend	-7196
▁Ambass	-7197
奥地	-7198
拉丁美洲和加勒比	-7199
▁Note	-7200
ATION	-7201
▁price	-7202
istent	-7203
的经验	-7204
▁spir	-7205
▁funded	-7206
▁recorded	-7207
提供援助	-7208
istries	-7209
奥地利	-7210
▁comply	-7211
▁Drugs	-7212
▁expansion	-7213
养恤金	-7214
▁58	-7215
▁vill	-7216
听取	-7217
▁linked	-7218
▁Mod	-7219
▁paras	-7220
▁penalty	-7221
marily	-7222
共体	-7223
▁topic	-7224
▁x	-7225
▁repe	-7226
格鲁吉亚	-7227
都有	-7228
取得进展	-7229
▁Sea	-7230
八届会议	-7231
▁globalization	-7232
上文第	-7233
▁Agric	-7234
/12	-7235
的办法	-7236
2004)	-7237
▁Another	-7238
▁belong	-7239
Secret	-7240
versity	-7241
▁Colombia	-7242
▁回顾	-7243
应急	-7244
▁66.	-7245
▁eradication	-7246
▁Rac	-7247
薪金	-7248
▁things	-7249
▁Ob	-7250
自身	-7251
arding	-7252
▁Consid	-7253
和平进程	-7254
高等	-7255
经济和	-7256
▁Assistant	-7257
▁Despite	-7258
国和	-7259
▁其中	-7260
密切合作	-7261
▁委员会注意到	-7262
▁purch	-7263
方向	-7264
被视为	-7265
▁2010.	-7266
▁eight	-7267
▁element	-7268
▁obtain	-7269
在本	-7270
▁UNAM	-7271
▁places	-7272
下文	-7273
▁histor	-7274
▁disasters	-7275
口头	-7276
rew	-7277
常规	-7278
▁territorial	-7279
购买	-7280
cell	-7281
▁sites	-7282
民众	-7283
▁decrease	-7284
▁除了	-7285
▁impacts	-7286
ommod	-7287
▁interpretation	-7288
备选	-7289
gov	-7290
▁From	-7291
母亲	-7292
▁assessed	-7293
▁termin	-7294
/59	-7295
oman	-7296
贩运人口	-7297
▁sustained	-7298
▁considerable	-7299
相对	-7300
▁Yugoslavia	-7301
▁payments	-7302
除其他外	-7303
▁valid	-7304
▁primarily	-7305
未经	-7306
▁previously	-7307
▁registered	-7308
彻底	-7309
▁quan	-7310
卖淫	-7311
斗争	-7312
产出	-7313
规定了	-7314
还将	-7315
声称	-7316
行业	-7317
性暴力	-7318
▁identity	-7319
▁drafting	-7320
▁Its	-7321
▁occasion	-7322
▁appointment	-7323
▁initiated	-7324
任意	-7325
▁Resources	-7326
孩子	-7327
▁Ur	-7328
参考	-7329
▁mid	-7330
▁acad	-7331
▁aims	-7332
▁acceler	-7333
▁bl	-7334
otal	-7335
阿拉伯叙利亚共和国	-7336
销毁	-7337
在执行	-7338
▁departments	-7339
▁undermin	-7340
▁diversity	-7341
▁maintained	-7342
名义	-7343
所在	-7344
▁imprison	-7345
捐助者	-7346
▁strongly	-7347
▁Developing	-7348
▁ownership	-7349
▁Serb	-7350
oration	-7351
astern	-7352
▁adaptation	-7353
OPS	-7354
atri	-7355
信息技术	-7356
工会	-7357
现有的	-7358
设想	-7359
▁各国	-7360
▁重申	-7361
5%	-7362
▁tour	-7363
▁earlier	-7364
▁80	-7365
▁已	-7366
tify	-7367
ilipp	-7368
试图	-7369
▁transparent	-7370
▁Family	-7371
▁benefic	-7372
约旦	-7373
urned	-7374
的说明	-7375
▁pattern	-7376
初级	-7377
iii	-7378
▁Burundi	-7379
uay	-7380
COP	-7381
深入	-7382
合作伙伴	-7383
▁Thus	-7384
▁governing	-7385
osystem	-7386
今年	-7387
second	-7388
ertification	-7389
多的	-7390
▁burd	-7391
▁Network	-7392
另一个	-7393
temp	-7394
▁Forms	-7395
敏感	-7396
马来	-7397
合作的	-7398
▁company	-7399
▁CD	-7400
▁Azerbaijan	-7401
白俄罗斯	-7402
ued	-7403
四个	-7404
裁军谈判	-7405
自然资源	-7406
:00	-7407
ead	-7408
▁以色列	-7409
▁67.	-7410
大会第五十	-7411
▁offered	-7412
termination	-7413
▁subsidiary	-7414
沙特	-7415
▁invent	-7416
ennial	-7417
▁lawy	-7418
wise	-7419
指挥	-7420
ria	-7421
▁2005.	-7422
▁systematic	-7423
six	-7424
▁2008.	-7425
款项	-7426
塞尔维亚	-7427
▁actually	-7428
韩民	-7429
▁mine	-7430
侧重	-7431
的技术	-7432
▁execution	-7433
▁Integ	-7434
▁2009.	-7435
▁Decade	-7436
男性	-7437
rip	-7438
社会发展	-7439
世界首脑会议	-7440
管理局	-7441
▁Forces	-7442
强烈	-7443
▁cycle	-7444
▁direction	-7445
▁worldwide	-7446
▁49	-7447
不可能	-7448
▁losses	-7449
管辖权	-7450
ocks	-7451
600	-7452
▁entered	-7453
▁investments	-7454
▁rev	-7455
▁Erit	-7456
预防犯罪和	-7457
争议	-7458
▁database	-7459
▁Ug	-7460
▁heard	-7461
fourth	-7462
▁accommod	-7463
出生	-7464
▁确保	-7465
备忘	-7466
▁recalled	-7467
▁profession	-7468
马来西亚	-7469
的前	-7470
终止	-7471
▁IAEA	-7472
▁seeking	-7473
的条件	-7474
▁VI	-7475
▁reiterated	-7476
▁whom	-7477
▁..	-7478
备忘录	-7479
▁Che	-7480
▁thereby	-7481
▁由	-7482
igence	-7483
的一切	-7484
新闻部	-7485
viation	-7486
▁pointed	-7487
oms	-7488
号决议中	-7489
这些国家	-7490
raising	-7491
加快	-7492
以促进	-7493
▁Item	-7494
ixed	-7495
human	-7496
▁Congress	-7497
▁deter	-7498
▁facing	-7499
onstruction	-7500
纪念	-7501
▁budgetary	-7502
▁encouraging	-7503
制定了	-7504
▁productive	-7505
细则	-7506
商定的	-7507
一定	-7508
各区域	-7509
▁Bosnia	-7510
国际人道主义法	-7511
▁norm	-7512
非洲国家	-7513
与其	-7514
▁Proced	-7515
fifth	-7516
▁green	-7517
▁Morocco	-7518
SO	-7519
巨大	-7520
▁constructive	-7521
方面发挥	-7522
限于	-7523
履行其	-7524
问题上	-7525
安全理事会主席	-7526
人民共和国	-7527
的相关	-7528
▁(2	-7529
▁59	-7530
雇主	-7531
咨询意见	-7532
ift	-7533
▁attended	-7534
▁sentence	-7535
波兰	-7536
▁incidents	-7537
经常预算	-7538
agency	-7539
▁68.	-7540
/18	-7541
▁Questions	-7542
▁extensive	-7543
开展了	-7544
电话	-7545
严重的	-7546
law	-7547
eline	-7548
▁envis	-7549
解放	-7550
theless	-7551
▁failed	-7552
委员会成员	-7553
▁favour	-7554
尽快	-7555
▁haz	-7556
▁spirit	-7557
推迟	-7558
zegov	-7559
秩序	-7560
副秘书长	-7561
▁Stand	-7562
撒哈拉	-7563
ocal	-7564
例子	-7565
▁selected	-7566
▁65	-7567
▁racism	-7568
zegovina	-7569
名额	-7570
▁belief	-7571
丹麦	-7572
▁radio	-7573
▁Task	-7574
基础上	-7575
▁containing	-7576
一道	-7577
教科文组织	-7578
/58	-7579
整体	-7580
采取的措施	-7581
坚持	-7582
▁identifying	-7583
ndering	-7584
▁exceed	-7585
▁employees	-7586
审评	-7587
▁52	-7588
提交了	-7589
快速	-7590
▁expect	-7591
命令	-7592
▁reven	-7593
宗旨	-7594
▁release	-7595
bon	-7596
▁Jer	-7597
专家小组	-7598
▁allocation	-7599
▁speaking	-7600
▁contributing	-7601
▁Ambassador	-7602
低于	-7603
三年	-7604
▁history	-7605
oming	-7606
北部	-7607
abled	-7608
▁Herzegovina	-7609
海关	-7610
并未	-7611
▁pack	-7612
生物多样性	-7613
▁website	-7614
na	-7615
补贴	-7616
▁世界	-7617
mark	-7618
▁firm	-7619
1992	-7620
▁progra	-7621
/57	-7622
职务	-7623
▁zone	-7624
elf	-7625
▁有关	-7626
▁stip	-7627
tor	-7628
联合国的	-7629
▁Scientific	-7630
▁因为	-7631
▁小组	-7632
所需经费	-7633
▁Movement	-7634
▁though	-7635
▁sanitation	-7636
ront	-7637
▁Decides	-7638
Secretary	-7639
▁amendment	-7640
▁1997,	-7641
清洁	-7642
▁contact	-7643
毁灭	-7644
▁speak	-7645
oks	-7646
惯例	-7647
▁transit	-7648
6)	-7649
尼斯	-7650
▁introduction	-7651
▁Nigeria	-7652
.1)	-7653
▁perpetrators	-7654
udi	-7655
yanmar	-7656
▁preparing	-7657
▁fel	-7658
▁Timor	-7659
内罗	-7660
/9	-7661
▁以	-7662
准确	-7663
有一个	-7664
▁protecting	-7665
和协调	-7666
多个	-7667
▁ple	-7668
▁doing	-7669
▁produce	-7670
ames	-7671
▁advocacy	-7672
utors	-7673
案例	-7674
ventive	-7675
▁Refugees	-7676
ara	-7677
▁micro	-7678
次报告	-7679
aily	-7680
▁regulation	-7681
▁sy	-7682
环境规划署	-7683
▁attemp	-7684
向委员会	-7685
▁Kh	-7686
cean	-7687
▁dead	-7688
▁reviews	-7689
黑塞	-7690
▁instance	-7691
iry	-7692
存在的	-7693
体育	-7694
▁69.	-7695
▁condem	-7696
体现	-7697
ENT	-7698
的事	-7699
覆盖	-7700
▁Peoples	-7701
一位	-7702
▁hy	-7703
内罗毕	-7704
孟加拉	-7705
▁Inspec	-7706
黑塞哥	-7707
内陆	-7708
的会议	-7709
▁weak	-7710
▁numerous	-7711
▁banks	-7712
eg	-7713
英国	-7714
▁...	-7715
▁stations	-7716
▁admin	-7717
▁Chile	-7718
▁latter	-7719
▁Project	-7720
提供支助	-7721
▁bank	-7722
▁maintaining	-7723
St	-7724
的培训	-7725
▁OIOS	-7726
预防和	-7727
拨款	-7728
的研究	-7729
经济增长	-7730
黑塞哥维	-7731
克罗地亚	-7732
▁lic	-7733
paragraph	-7734
▁unc	-7735
成绩	-7736
▁protected	-7737
重要的是	-7738
▁adverse	-7739
▁preparatory	-7740
的需要	-7741
的讨论	-7742
▁judiciary	-7743
▁Pur	-7744
▁widely	-7745
▁obstacles	-7746
▁Ethiopia	-7747
尊严	-7748
▁transform	-7749
▁aware	-7750
▁union	-7751
▁cop	-7752
联网	-7753
短期	-7754
重返社会	-7755
▁每	-7756
gency	-7757
发放	-7758
小岛屿发展中国家	-7759
面临的	-7760
灭绝	-7761
移交	-7762
这两个	-7763
儿童权利公约	-7764
uration	-7765
定为	-7766
▁dign	-7767
囚犯	-7768
▁cat	-7769
询问	-7770
▁preliminary	-7771
财务报表	-7772
▁2006.	-7773
▁LDC	-7774
是对	-7775
比利	-7776
问题和	-7777
▁mom	-7778
▁pursue	-7779
▁0.	-7780
▁51	-7781
赞成	-7782
▁Cro	-7783
▁ded	-7784
证书	-7785
iscal	-7786
▁afford	-7787
▁中	-7788
faction	-7789
▁Expert	-7790
alization	-7791
共有	-7792
▁90	-7793
▁satell	-7794
item	-7795
▁confirmed	-7796
秘鲁	-7797
▁70.	-7798
强奸	-7799
遣队	-7800
uses	-7801
▁supplies	-7802
芬兰	-7803
iance	-7804
建造	-7805
lish	-7806
▁thirty	-7807
多种	-7808
▁新	-7809
▁entity	-7810
uster	-7811
▁强调	-7812
gned	-7813
▁Kenya	-7814
▁正如	-7815
▁fed	-7816
▁Year	-7817
▁allocated	-7818
所需的	-7819
seventh	-7820
▁总	-7821
具备	-7822
▁Philipp	-7823
iteracy	-7824
效果	-7825
determination	-7826
自决	-7827
▁47	-7828
然后	-7829
▁71.	-7830
前南斯拉夫	-7831
▁publication	-7832
▁fo	-7833
UC	-7834
▁coordinate	-7835
▁Strategic	-7836
复员	-7837
当时	-7838
800	-7839
▁barri	-7840
▁unable	-7841
黑塞哥维那	-7842
所需资源	-7843
目前正在	-7844
观念	-7845
▁carrying	-7846
和在	-7847
此同时	-7848
和对	-7849
定期报告	-7850
/28	-7851
▁concent	-7852
▁Territories	-7853
▁contra	-7854
▁41	-7855
▁执行	-7856
▁woman	-7857
离开	-7858
usalem	-7859
posal	-7860
olerance	-7861
▁pending	-7862
▁Finally	-7863
▁AIDS	-7864
▁suc	-7865
▁behavi	-7866
也没有	-7867
sixth	-7868
▁Their	-7869
▁intensi	-7870
也不	-7871
耶路	-7872
撒冷	-7873
经济体	-7874
asures	-7875
▁started	-7876
日起	-7877
▁unemployment	-7878
▁Myanmar	-7879
提案国	-7880
▁understand	-7881
耶路撒冷	-7882
▁99	-7883
三届会议	-7884
向大会	-7885
▁expenses	-7886
▁delivered	-7887
▁Energy	-7888
民事	-7889
克服	-7890
面对	-7891
供应商	-7892
▁mach	-7893
人人	-7894
补助	-7895
▁worked	-7896
▁Ear	-7897
▁migrant	-7898
CCC	-7899
▁(1)	-7900
▁affecting	-7901
▁innovative	-7902
第一次	-7903
ordan	-7904
五年	-7905
▁platform	-7906
ophob	-7907
▁Subcommittee	-7908
▁improvements	-7909
▁guarantees	-7910
用来	-7911
▁noting	-7912
最新	-7913
工作人员的	-7914
head	-7915
mbud	-7916
▁pled	-7917
▁2007.	-7918
▁unless	-7919
▁2011.	-7920
康复	-7921
XX	-7922
希腊	-7923
不扩散条约	-7924
▁focal	-7925
▁older	-7926
ailand	-7927
unction	-7928
aritime	-7929
▁safeguards	-7930
护理	-7931
大陆	-7932
▁accused	-7933
遇到	-7934
▁ever	-7935
ata	-7936
▁ecosystem	-7937
▁publications	-7938
▁400	-7939
2001)	-7940
▁campaigns	-7941
驻地	-7942
某一	-7943
被占领	-7944
▁arch	-7945
▁Mechanism	-7946
目前的	-7947
近东	-7948
▁jobs	-7949
72	-7950
inking	-7951
oli	-7952
▁interested	-7953
人格	-7954
oon	-7955
▁geographical	-7956
▁fa	-7957
获悉	-7958
free	-7959
▁try	-7960
协同	-7961
▁Regulations	-7962
发言者	-7963
▁gaps	-7964
▁Alg	-7965
证人	-7966
反腐败	-7967
▁etc	-7968
可在	-7969
设立的	-7970
▁Comb	-7971
ship	-7972
PC	-7973
变得	-7974
显著	-7975
▁binding	-7976
年度报告	-7977
汇编	-7978
人权利	-7979
▁Most	-7980
▁unilateral	-7981
ert	-7982
发基金	-7983
fully	-7984
和促进	-7985
特点	-7986
▁abol	-7987
▁strict	-7988
极为	-7989
▁Accordingly	-7990
是由	-7991
▁saving	-7992
▁vir	-7993
▁1993	-7994
南亚	-7995
▁56	-7996
▁arri	-7997
▁mandated	-7998
的认识	-7999
▁Fourth	-8000
road	-8001
mises	-8002
▁consultative	-8003
住区	-8004
副主席	-8005
主动	-8006
▁Jerusalem	-8007
▁44	-8008
▁ap	-8009
▁Enc	-8010
locked	-8011
▁Please	-8012
总数	-8013
▁constraints	-8014
只能	-8015
最高法院	-8016
▁Coordinator	-8017
产权	-8018
lling	-8019
▁prisoners	-8020
中心的	-8021
采取的行动	-8022
▁conformity	-8023
▁interim	-8024
柬埔	-8025
重要作用	-8026
正义	-8027
▁Tr	-8028
柬埔寨	-8029
▁unp	-8030
毛里	-8031
▁fifth	-8032
▁Violence	-8033
两名	-8034
▁revision	-8035
确实	-8036
的必要	-8037
▁61	-8038
▁devo	-8039
▁committees	-8040
▁played	-8041
▁technological	-8042
所有人	-8043
强调了	-8044
▁UNIF	-8045
▁reservation	-8046
▁Six	-8047
任职	-8048
▁Consult	-8049
▁ratify	-8050
▁remedies	-8051
▁survi	-8052
airobi	-8053
ka	-8054
结盟	-8055
▁Sweden	-8056
开展工作	-8057
▁Given	-8058
▁Professional	-8059
▁MIN	-8060
▁Establ	-8061
ilt	-8062
Comm	-8063
▁resolve	-8064
▁verification	-8065
▁AND	-8066
▁staffing	-8067
电视	-8068
5)	-8069
多尔	-8070
▁所以	-8071
分庭	-8072
EDAW	-8073
▁transactions	-8074
或有	-8075
提高妇女地位	-8076
▁jointly	-8077
消耗	-8078
ulg	-8079
申诉人	-8080
▁factor	-8081
▁Out	-8082
洗钱	-8083
葡萄	-8084
aps	-8085
这些问题	-8086
补偿	-8087
▁conver	-8088
▁reaffirmed	-8089
SA	-8090
▁duties	-8091
▁slow	-8092
大大	-8093
▁bound	-8094
ieties	-8095
▁som	-8096
▁esc	-8097
关切的是	-8098
istence	-8099
rolled	-8100
▁2004.	-8101
▁Para	-8102
/13	-8103
▁otherwise	-8104
加剧	-8105
▁mess	-8106
▁Traffic	-8107
▁award	-8108
▁began	-8109
▁经	-8110
以及对	-8111
广播	-8112
inese	-8113
危地	-8114
▁Brit	-8115
▁numbers	-8116
▁Room	-8117
▁shows	-8118
▁capabilities	-8119
巴布	-8120
隔离	-8121
▁Therefore	-8122
潜力	-8123
的内容	-8124
危地马拉	-8125
七届会议	-8126
▁72.	-8127
▁hoc	-8128
▁Equality	-8129
▁designated	-8130
▁审查	-8131
eighth	-8132
▁Comprehensive	-8133
▁Bi	-8134
仍然是	-8135
erted	-8136
▁Adop	-8137
▁42	-8138
lades	-8139
的有效	-8140
▁Pen	-8141
▁73.	-8142
基准	-8143
rat	-8144
▁impunity	-8145
▁substances	-8146
▁pros	-8147
▁nations	-8148
▁pilot	-8149
▁explan	-8150
▁Nairobi	-8151
▁legitimate	-8152
谈会	-8153
umber	-8154
性剥削	-8155
ladesh	-8156
粮农	-8157
▁ILO	-8158
adequ	-8159
认真	-8160
的案件	-8161
比利时	-8162
▁Uganda	-8163
信贷	-8164
贸易法	-8165
▁chemicals	-8166
▁outer	-8167
突出	-8168
没有任何	-8169
▁Climate	-8170
▁Statute	-8171
出于	-8172
卫生组织	-8173
isterial	-8174
期待	-8175
某种	-8176
波斯尼亚和	-8177
条约机构	-8178
武器的	-8179
来的	-8180
▁pension	-8181
会计准则	-8182
▁四	-8183
▁satisfaction	-8184
吸引	-8185
▁coast	-8186
▁agency	-8187
尼泊	-8188
▁doub	-8189
尼泊尔	-8190
uven	-8191
积极参与	-8192
▁violated	-8193
/63	-8194
ranch	-8195
退休	-8196
设在	-8197
▁insu	-8198
eploy	-8199
▁shel	-8200
▁differences	-8201
▁dispute	-8202
WG	-8203
▁late	-8204
aving	-8205
▁Promotion	-8206
捷克	-8207
受害人	-8208
的范围	-8209
的调查	-8210
DI	-8211
▁regularly	-8212
厄瓜	-8213
五届会议	-8214
主办	-8215
六届会议	-8216
厄瓜多尔	-8217
转递	-8218
▁background	-8219
▁dedic	-8220
▁users	-8221
▁Red	-8222
house	-8223
行政和预算	-8224
▁Britain	-8225
▁Sen	-8226
▁charge	-8227
生活在	-8228
委内	-8229
▁opening	-8230
和政府	-8231
▁English	-8232
▁Encoura	-8233
▁occurred	-8234
▁vulnerability	-8235
▁第三	-8236
ises	-8237
恶化	-8238
气体	-8239
▁imprisonment	-8240
▁nar	-8241
▁Independent	-8242
排除	-8243
那里	-8244
▁2015	-8245
▁poss	-8246
▁achievements	-8247
协商一致	-8248
紧张	-8249
▁away	-8250
isition	-8251
提名	-8252
瑞拉	-8253
生态系统	-8254
▁detain	-8255
稳定团	-8256
▁controls	-8257
正确	-8258
mmun	-8259
流行	-8260
irming	-8261
sequently	-8262
▁teachers	-8263
和环境	-8264
委内瑞拉	-8265
▁hoped	-8266
▁2012.	-8267
▁moment	-8268
▁settlements	-8269
▁examination	-8270
阻止	-8271
突尼斯	-8272
▁receiving	-8273
交付	-8274
▁秘书长关于	-8275
有义务	-8276
ocide	-8277
▁Jordan	-8278
与合作	-8279
ots	-8280
▁欢迎	-8281
的风险	-8282
限度	-8283
▁Br	-8284
▁gas	-8285
安置	-8286
专门知识	-8287
▁Croati	-8288
iently	-8289
代表的	-8290
葡萄牙	-8291
▁Impro	-8292
连续	-8293
影响到	-8294
问责制	-8295
▁Docu	-8296
飞行	-8297
▁associations	-8298
全球化	-8299
▁Two	-8300
基本自由	-8301
人民的	-8302
-200	-8303
ectual	-8304
▁43	-8305
ambod	-8306
▁Reduc	-8307
委员会的报告	-8308
▁54	-8309
摊款	-8310
和政策	-8311
vey	-8312
▁outlined	-8313
ET	-8314
▁Universal	-8315
举办了	-8316
韩民国	-8317
项下	-8318
▁UNESCO	-8319
aundering	-8320
▁Thailand	-8321
▁seminars	-8322
..	-8323
ihood	-8324
▁64	-8325
▁在此	-8326
目标是	-8327
▁exports	-8328
设法	-8329
▁prostitution	-8330
缔结	-8331
报告说	-8332
▁daily	-8333
▁Statistics	-8334
augh	-8335
▁examine	-8336
违反了	-8337
▁guide	-8338
已在	-8339
▁expanded	-8340
的时候	-8341
其他国家	-8342
官方发展援助	-8343
成员名额	-8344
的管理	-8345
▁heav	-8346
▁disclo	-8347
▁curren	-8348
▁事实上	-8349
▁Stud	-8350
▁complainant	-8351
一体化	-8352
议员	-8353
百分比	-8354
▁troops	-8355
/62	-8356
▁determination	-8357
产妇	-8358
北京	-8359
▁maximum	-8360
常驻联合国代表	-8361
▁Small	-8362
▁journal	-8363
收益	-8364
泰国	-8365
essment	-8366
▁giving	-8367
▁modalities	-8368
▁decide	-8369
▁Tun	-8370
▁53	-8371
边境	-8372
海洋法	-8373
▁Set	-8374
iety	-8375
行政当局	-8376
▁Indust	-8377
预防犯罪和刑事司法	-8378
orders	-8379
▁2003.	-8380
gressive	-8381
ta	-8382
亚美	-8383
将是	-8384
dered	-8385
▁Chinese	-8386
学术	-8387
有时	-8388
▁46	-8389
根据第	-8390
tra	-8391
的一种	-8392
▁75.	-8393
ne	-8394
为其	-8395
▁roles	-8396
发射	-8397
的世界	-8398
ives	-8399
CON	-8400
波斯尼亚和黑塞哥维那	-8401
▁structural	-8402
▁Georgia	-8403
四届会议	-8404
少数民族	-8405
▁heads	-8406
▁600	-8407
▁broader	-8408
▁classi	-8409
▁Torture	-8410
实施的	-8411
歧视公约	-8412
▁poll	-8413
ware	-8414
aysia	-8415
限成员名额	-8416
经营	-8417
heries	-8418
lines	-8419
off	-8420
附加	-8421
通讯	-8422
特遣队	-8423
▁grave	-8424
面前	-8425
排雷	-8426
udicial	-8427
的成员	-8428
orts	-8429
▁76.	-8430
▁Found	-8431
▁drawn	-8432
志愿人员	-8433
atemal	-8434
enophob	-8435
▁uses	-8436
▁Cost	-8437
▁degree	-8438
▁考虑到	-8439
▁(2)	-8440
arus	-8441
ply	-8442
比如	-8443
继续努力	-8444
▁Preparatory	-8445
▁willing	-8446
前往	-8447
▁workpl	-8448
▁assisting	-8449
▁preventive	-8450
摘要	-8451
照顾	-8452
▁Occ	-8453
需要的	-8454
▁coming	-8455
二届会议	-8456
▁coherence	-8457
▁最近	-8458
举行的第	-8459
quiry	-8460
▁vision	-8461
小学	-8462
▁bringing	-8463
▁declared	-8464
相反	-8465
▁Common	-8466
事先	-8467
其在	-8468
▁transmitted	-8469
▁processing	-8470
禁止酷刑	-8471
▁spread	-8472
▁Platform	-8473
二十	-8474
iodiversity	-8475
▁Saudi	-8476
▁reconstruction	-8477
▁disputes	-8478
区的	-8479
▁Peru	-8480
▁coordinating	-8481
ninth	-8482
▁killed	-8483
分区域	-8484
不论	-8485
自然灾害	-8486
▁Reaff	-8487
▁detained	-8488
转交	-8489
决定草案	-8490
卡塔	-8491
/66	-8492
▁Day	-8493
斯里	-8494
必须在	-8495
▁partner	-8496
列的	-8497
▁Sur	-8498
ares	-8499
aching	-8500
▁dignity	-8501
▁sense	-8502
▁embargo	-8503
▁Ministerial	-8504
▁believes	-8505
是因为	-8506
▁ago	-8507
zuel	-8508
只要	-8509
ulating	-8510
制度的	-8511
▁74.	-8512
▁option	-8513
▁announced	-8514
的需求	-8515
ijing	-8516
▁governmental	-8517
1(	-8518
的理由	-8519
提出报告	-8520
▁suspec	-8521
见附件	-8522
▁mental	-8523
本报告所述期间	-8524
▁inadequ	-8525
▁wishes	-8526
▁Land	-8527
anz	-8528
▁Integrated	-8529
tivities	-8530
余额	-8531
▁defic	-8532
北爱尔兰	-8533
毁灭性	-8534
▁Contin	-8535
▁fiscal	-8536
科学和技术	-8537
▁humanity	-8538
▁exped	-8539
tially	-8540
▁interventions	-8541
▁Through	-8542
tt	-8543
▁accomp	-8544
多年	-8545
▁nation	-8546
▁liability	-8547
兰卡	-8548
▁observer	-8549
▁burden	-8550
遵循	-8551
被认为	-8552
stance	-8553
▁subsequently	-8554
当选	-8555
▁manage	-8556
▁assign	-8557
并鼓励	-8558
外交部长	-8559
udgets	-8560
并与	-8561
▁destro	-8562
▁clean	-8563
期望	-8564
ush	-8565
充足	-8566
的参与	-8567
主张	-8568
▁63	-8569
▁methodology	-8570
enezuel	-8571
ocational	-8572
▁Cambod	-8573
▁ship	-8574
74	-8575
▁calc	-8576
装置	-8577
duct	-8578
药品	-8579
▁Philippines	-8580
▁Iraqi	-8581
▁really	-8582
▁principal	-8583
提出建议	-8584
何种	-8585
cast	-8586
权和	-8587
▁break	-8588
▁located	-8589
▁examples	-8590
▁Any	-8591
ili	-8592
确定的	-8593
700	-8594
entially	-8595
专业人员	-8596
-2003	-8597
着手	-8598
ote	-8599
尤其是在	-8600
▁recognizes	-8601
迫切	-8602
▁raising	-8603
▁floor	-8604
以此	-8605
▁locations	-8606
▁scheduled	-8607
仅仅	-8608
▁Advis	-8609
▁focusing	-8610
8)	-8611
就会	-8612
ingu	-8613
▁Southern	-8614
▁imped	-8615
▁需要	-8616
▁77.	-8617
▁mobilization	-8618
的目的	-8619
▁而且	-8620
了一些	-8621
部和	-8622
许可证	-8623
▁managers	-8624
▁enterprise	-8625
burse	-8626
加速	-8627
Habitat	-8628
仇外	-8629
取代	-8630
和支持	-8631
▁Budgetary	-8632
世界各地	-8633
的可能性	-8634
▁asset	-8635
quid	-8636
FC	-8637
▁行预咨委会	-8638
观察团	-8639
OL	-8640
界定	-8641
经历	-8642
条草案	-8643
习惯	-8644
▁Occup	-8645
▁covering	-8646
号决议所	-8647
高兴	-8648
▁arbitrary	-8649
▁weeks	-8650
▁reasonable	-8651
冲突后	-8652
▁mil	-8653
亚美尼亚	-8654
▁Similar	-8655
以加强	-8656
▁budgets	-8657
▁tru	-8658
削减	-8659
▁largely	-8660
▁web	-8661
提供关于	-8662
▁Planning	-8663
▁selection	-8664
军备	-8665
ortion	-8666
▁corporate	-8667
▁thous	-8668
▁neighbour	-8669
▁Beijing	-8670
▁prospec	-8671
zech	-8672
毫无	-8673
▁maternal	-8674
▁extension	-8675
的协调	-8676
国家一级	-8677
地位的	-8678
▁Spanish	-8679
▁poli	-8680
▁class	-8681
首次	-8682
▁century	-8683
▁soldi	-8684
▁specified	-8685
终了	-8686
公民权利和	-8687
▁examined	-8688
hel	-8689
load	-8690
刑事诉讼	-8691
的待遇	-8692
所谓	-8693
uador	-8694
▁Eastern	-8695
负债	-8696
单方面	-8697
它们的	-8698
▁Paragraph	-8699
捐助方	-8700
重复	-8701
▁minim	-8702
的那样	-8703
有害	-8704
uable	-8705
被占	-8706
▁acced	-8707
审查和	-8708
▁ali	-8709
STA	-8710
▁mer	-8711
spoke	-8712
cessive	-8713
▁deliberations	-8714
未成	-8715
▁Noting	-8716
▁arrested	-8717
的原因	-8718
斯里兰卡	-8719
▁thank	-8720
还在	-8721
并通过	-8722
▁details	-8723
▁建议	-8724
▁Bangladesh	-8725
▁mines	-8726
▁ESC	-8727
情形	-8728
/65	-8729
服务和	-8730
除非	-8731
概算	-8732
信息系统	-8733
▁Hoc	-8734
月至	-8735
受影响	-8736
▁update	-8737
麻醉	-8738
▁Account	-8739
仍在	-8740
ece	-8741
首长	-8742
的人数	-8743
▁doc	-8744
▁1992	-8745
▁Safety	-8746
▁2002.	-8747
▁Guatemal	-8748
▁works	-8749
conflict	-8750
terrorism	-8751
▁grad	-8752
届会	-8753
▁Armen	-8754
十字	-8755
萨尔	-8756
加尔	-8757
专门机构	-8758
lication	-8759
传染	-8760
更大	-8761
▁Portug	-8762
五个	-8763
管理的	-8764
▁city	-8765
▁solidarity	-8766
▁Ben	-8767
基金的	-8768
▁cities	-8769
ao	-8770
物品	-8771
承包	-8772
dep	-8773
lim	-8774
孟加拉国	-8775
民主主义	-8776
▁demob	-8777
RWA	-8778
▁Our	-8779
sile	-8780
▁welfare	-8781
▁i	-8782
▁Issu	-8783
▁reflects	-8784
79	-8785
IR	-8786
批准了	-8787
▁subjected	-8788
消除贫穷	-8789
▁Process	-8790
▁Foundation	-8791
▁relevance	-8792
uthors	-8793
▁Counter	-8794
income	-8795
▁advantage	-8796
的审议	-8797
行政和预算问题	-8798
裁谈会	-8799
▁quick	-8800
▁62	-8801
▁Algeria	-8802
变革	-8803
▁Appro	-8804
▁prompt	-8805
人权事务高级专员办事处	-8806
废除	-8807
▁product	-8808
是根据	-8809
▁charges	-8810
epal	-8811
比率	-8812
董事	-8813
越南	-8814
提出的建议	-8815
▁links	-8816
▁exem	-8817
为期	-8818
促进和保护	-8819
▁提交人	-8820
对待	-8821
辱人格	-8822
tin	-8823
▁acting	-8824
力和	-8825
being	-8826
监察员	-8827
rene	-8828
oking	-8829
including	-8830
▁increases	-8831
它的	-8832
政府在	-8833
文职	-8834
ony	-8835
进程的	-8836
反映了	-8837
▁pressure	-8838
不列	-8839
ense	-8840
巴黎	-8841
▁Peacebuilding	-8842
提交给	-8843
路线	-8844
▁Venezuel	-8845
例外	-8846
▁powers	-8847
▁condition	-8848
▁hear	-8849
▁largest	-8850
▁fri	-8851
ighting	-8852
specific	-8853
缺少	-8854
rations	-8855
▁人权	-8856
和相关	-8857
(2	-8858
iaison	-8859
▁LDCs	-8860
武器和轻	-8861
▁stop	-8862
▁obtained	-8863
2006)	-8864
独立专家	-8865
▁Gh	-8866
法院的	-8867
▁curric	-8868
并请	-8869
朝鲜民主主义	-8870
▁这样	-8871
iling	-8872
▁became	-8873
▁Bah	-8874
和有关	-8875
▁proliferation	-8876
错误	-8877
▁came	-8878
andum	-8879
▁preced	-8880
▁Eritrea	-8881
周年	-8882
自我	-8883
程序的	-8884
掌握	-8885
元首	-8886
最初	-8887
反恐怖主义	-8888
emorandum	-8889
条的	-8890
/14	-8891
▁influence	-8892
▁Decision	-8893
朝鲜民主主义人民共和国	-8894
间接	-8895
▁没有	-8896
7)	-8897
几年	-8898
▁sole	-8899
▁decades	-8900
境内的	-8901
▁Mul	-8902
哥拉	-8903
▁customs	-8904
▁disease	-8905
辩护	-8906
的共同	-8907
▁Invest	-8908
ns	-8909
▁race	-8910
教学	-8911
▁trained	-8912
▁Increased	-8913
▁societies	-8914
不人道	-8915
实验	-8916
骚扰	-8917
世贸	-8918
▁78.	-8919
与国际	-8920
ches	-8921
▁authors	-8922
▁Strengthening	-8923
▁disappear	-8924
加上	-8925
安哥拉	-8926
直接投资	-8927
▁Ombud	-8928
▁legally	-8929
▁UNOPS	-8930
▁Activities	-8931
89	-8932
杀伤	-8933
▁Change	-8934
▁assigned	-8935
裁军谈判会议	-8936
共计	-8937
金融机构	-8938
好处	-8939
▁quarter	-8940
▁outreach	-8941
食品	-8942
处决	-8943
comp	-8944
▁convened	-8945
法定	-8946
▁envisaged	-8947
ults	-8948
▁sale	-8949
▁有人	-8950
▁rape	-8951
▁nationals	-8952
不列颠	-8953
▁demonstrated	-8954
▁NPT	-8955
▁Ne	-8956
收到的	-8957
tre	-8958
▁phen	-8959
▁Tunis	-8960
人居署	-8961
▁fall	-8962
▁Turkish	-8963
▁impar	-8964
▁crises	-8965
▁attached	-8966
▁represents	-8967
京都	-8968
▁adoles	-8969
▁topics	-8970
汇报	-8971
粮农组织	-8972
▁chair	-8973
▁第一	-8974
▁79.	-8975
医生	-8976
报告和	-8977
有罪	-8978
eff	-8979
uri	-8980
渠道	-8981
▁Belarus	-8982
▁在第	-8983
▁camps	-8984
▁posed	-8985
emy	-8986
▁Pursu	-8987
常常	-8988
▁association	-8989
▁Operation	-8990
▁800	-8991
可以在	-8992
ruel	-8993
ival	-8994
▁impos	-8995
▁true	-8996
▁periods	-8997
▁prohibited	-8998
强化	-8999
▁advanced	-9000
down	-9001
的人员	-9002
改为	-9003
▁enough	-9004
▁multiple	-9005
阿拉伯国家	-9006
▁insufficient	-9007
国际和平与安全	-9008
守则	-9009
和教育	-9010
▁foster	-9011
性别问题	-9012
▁incur	-9013
▁search	-9014
▁usu	-9015
rength	-9016
▁deployed	-9017
erver	-9018
后来	-9019
文本	-9020
where	-9021
▁witnesses	-9022
iversary	-9023
▁War	-9024
暂停	-9025
中非共和国	-9026
▁中国	-9027
wh	-9028
一些国家	-9029
大规模毁灭性	-9030
制作	-9031
裁定	-9032
Chair	-9033
处境	-9034
▁67	-9035
▁1991	-9036
▁alone	-9037
▁Oversight	-9038
reatment	-9039
▁ves	-9040
▁tourism	-9041
titude	-9042
▁nomin	-9043
机制的	-9044
.1,	-9045
是为了	-9046
斯达	-9047
▁phenomen	-9048
统计数据	-9049
▁investigate	-9050
iplinary	-9051
称为	-9052
放弃	-9053
▁contrary	-9054
ifest	-9055
非正式协商	-9056
发了言	-9057
给秘书长	-9058
简要	-9059
▁Kyoto	-9060
这次	-9061
/68	-9062
mer	-9063
▁Main	-9064
寻找	-9065
陈述	-9066
▁Excell	-9067
/64	-9068
审查了	-9069
罗姆	-9070
部的	-9071
雇用	-9072
▁Additional	-9073
和中	-9074
▁hazard	-9075
▁resumed	-9076
valuation	-9077
指数	-9078
区域的	-9079
▁包括	-9080
公民权利和政治权利	-9081
和使用	-9082
背景下	-9083
vail	-9084
FP	-9085
Commission	-9086
的生活	-9087
妇女和儿童	-9088
▁Model	-9089
▁decade	-9090
▁欧洲	-9091
人类住区	-9092
作出决定	-9093
生殖健康	-9094
▁Malaysia	-9095
▁strength	-9096
新伙伴关系	-9097
活动和	-9098
▁Representatives	-9099
eav	-9100
▁depos	-9101
还要	-9102
reprene	-9103
▁Auditors	-9104
▁speakers	-9105
方面所	-9106
一直在	-9107
有机会	-9108
倡导	-9109
永久	-9110
▁anticip	-9111
适合	-9112
▁区域	-9113
sels	-9114
▁involve	-9115
每一	-9116
fin	-9117
哥斯达	-9118
的机构	-9119
▁combined	-9120
▁size	-9121
应付	-9122
rely	-9123
▁2014,	-9124
在这一	-9125
▁Belg	-9126
elec	-9127
先生阁下	-9128
哥斯达黎	-9129
ynam	-9130
沙特阿拉伯	-9131
Is	-9132
的个人	-9133
ican	-9134
▁120	-9135
times	-9136
dation	-9137
ean	-9138
社会和文化权利	-9139
▁Lank	-9140
年后	-9141
▁explained	-9142
▁2000.	-9143
功能	-9144
▁barriers	-9145
▁sections	-9146
zation	-9147
▁至	-9148
▁Armed	-9149
▁programming	-9150
scale	-9151
沿海	-9152
▁subs	-9153
哥斯达黎加	-9154
▁boys	-9155
转变	-9156
▁非	-9157
▁66	-9158
▁6,	-9159
提醒	-9160
advant	-9161
▁Leg	-9162
▁Croatia	-9163
▁suffering	-9164
小武器和轻	-9165
▁cease	-9166
▁repatri	-9167
>;	-9168
两次	-9169
ribunals	-9170
ribution	-9171
援助团	-9172
不良	-9173
拖延	-9174
遣返	-9175
▁MON	-9176
可持续性	-9177
▁transportation	-9178
76	-9179
告诉	-9180
▁forums	-9181
▁CO	-9182
la	-9183
南南合作	-9184
▁Nepal	-9185
印发	-9186
以便在	-9187
▁Team	-9188
▁peacebuilding	-9189
face	-9190
▁savings	-9191
▁transferred	-9192
uk	-9193
知识产权	-9194
▁Czech	-9195
▁indicates	-9196
▁Society	-9197
▁accompan	-9198
amer	-9199
记者	-9200
先前	-9201
space	-9202
暴力侵害妇女	-9203
▁Austria	-9204
自动	-9205
83	-9206
每月	-9207
▁Total	-9208
MIS	-9209
始终	-9210
urate	-9211
▁overcome	-9212
▁Roma	-9213
▁Number	-9214
▁volum	-9215
gression	-9216
▁helped	-9217
▁Finance	-9218
▁federal	-9219
/1998	-9220
▁endeav	-9221
▁recip	-9222
enophobia	-9223
宣言和	-9224
▁同	-9225
/61	-9226
侵略	-9227
▁biological	-9228
▁idea	-9229
水和	-9230
特征	-9231
红十字	-9232
▁tack	-9233
2(	-9234
▁acquisition	-9235
研究和	-9236
遗憾的是	-9237
▁released	-9238
▁acknowledged	-9239
也有	-9240
大家	-9241
▁prej	-9242
▁relatively	-9243
残忍	-9244
▁mag	-9245
共享	-9246
▁exclud	-9247
IG	-9248
入学	-9249
▁channel	-9250
各组织	-9251
▁innovation	-9252
▁anniversary	-9253
▁要	-9254
pread	-9255
▁joined	-9256
可能的	-9257
成效	-9258
idespread	-9259
▁Now	-9260
▁与会者	-9261
坦桑	-9262
tun	-9263
▁Defence	-9264
视察	-9265
工作地点	-9266
▁80.	-9267
▁lost	-9268
▁division	-9269
哈萨	-9270
▁San	-9271
▁disadvant	-9272
客户	-9273
的预算	-9274
▁monthly	-9275
▁original	-9276
就业机会	-9277
utable	-9278
/15	-9279
不利影响	-9280
不容忍	-9281
▁Den	-9282
男女平等	-9283
/2006	-9284
grading	-9285
▁closed	-9286
▁Trafficking	-9287
▁elig	-9288
▁Palestinians	-9289
偿还	-9290
速度	-9291
万人	-9292
入侵	-9293
aled	-9294
▁conducting	-9295
订立	-9296
/67	-9297
委员会第	-9298
▁seminar	-9299
▁Resolution	-9300
农村地区	-9301
▁repeated	-9302
▁Transition	-9303
提供支持	-9304
▁ideas	-9305
高的	-9306
▁ministries	-9307
▁uns	-9308
解除武装	-9309
▁UNRWA	-9310
▁Ecuador	-9311
▁Finland	-9312
▁except	-9313
▁explicit	-9314
的使用	-9315
▁premises	-9316
签订	-9317
非洲发展	-9318
边缘	-9319
的歧视	-9320
▁Serbia	-9321
▁Guidelines	-9322
▁limits	-9323
▁Agriculture	-9324
In	-9325
discrimination	-9326
▁alle	-9327
大力	-9328
担心	-9329
区域和国际	-9330
▁born	-9331
▁dig	-9332
▁Sing	-9333
再生	-9334
的关系	-9335
/2000	-9336
aughter	-9337
▁harass	-9338
有益	-9339
Ter	-9340
▁Power	-9341
▁competence	-9342
sman	-9343
▁ended	-9344
▁remote	-9345
讲话	-9346
东道国	-9347
▁figures	-9348
▁becoming	-9349
▁representing	-9350
乍得	-9351
马尔	-9352
提供资金	-9353
▁decline	-9354
▁reiterates	-9355
/1999	-9356
发达国家的	-9357
委员会的工作	-9358
CRC	-9359
贸易和	-9360
委员会的建议	-9361
▁transnational	-9362
环境基金	-9363
▁remin	-9364
▁Fri	-9365
坦桑尼亚	-9366
▁feed	-9367
▁MDG	-9368
两国	-9369
▁2013.	-9370
CI	-9371
软件	-9372
▁Ma	-9373
融合	-9374
缔约国在	-9375
跨国有组织犯罪	-9376
该决议	-9377
以支持	-9378
▁accessible	-9379
].	-9380
▁figure	-9381
尔多	-9382
rong	-9383
▁interview	-9384
▁Measures	-9385
最好	-9386
alle	-9387
规章	-9388
工作计划	-9389
▁employed	-9390
▁amb	-9391
▁directed	-9392
▁complaint	-9393
▁satellite	-9394
▁Mad	-9395
▁liberty	-9396
▁acceptance	-9397
导弹	-9398
emen	-9399
▁unique	-9400
/53	-9401
▁feel	-9402
▁serving	-9403
▁distributed	-9404
继承	-9405
▁dealt	-9406
▁Calls	-9407
ape	-9408
▁changing	-9409
▁Sri	-9410
救济工程处	-9411
但在	-9412
▁Pursuant	-9413
▁discriminatory	-9414
后者	-9415
报告第	-9416
▁GDP	-9417
重点是	-9418
个员额	-9419
的实施	-9420
omic	-9421
总值	-9422
▁7,	-9423
使之	-9424
京都议定书	-9425
▁toler	-9426
▁Int	-9427
的全面	-9428
96	-9429
▁remar	-9430
塞内	-9431
▁widespread	-9432
成员的	-9433
更大的	-9434
已有	-9435
roduce	-9436
▁审计委员会	-9437
▁constitutes	-9438
▁Paris	-9439
▁attain	-9440
的条款	-9441
采取一切	-9442
处置	-9443
推行	-9444
和人权	-9445
▁Institution	-9446
gen	-9447
▁Excellency	-9448
▁Angol	-9449
▁suffered	-9450
▁exception	-9451
协调一致	-9452
velihood	-9453
fers	-9454
▁opened	-9455
▁Procedure	-9456
▁Venezuela	-9457
▁Guatemala	-9458
▁stream	-9459
ME	-9460
▁ul	-9461
▁disabled	-9462
塞内加尔	-9463
▁opposition	-9464
目标和	-9465
78	-9466
投诉	-9467
sen	-9468
不列颠及	-9469
▁mitigation	-9470
组成的	-9471
匈牙	-9472
计算机	-9473
经济发展	-9474
▁regards	-9475
▁与此同时	-9476
▁undertaking	-9477
协调和	-9478
oty	-9479
告知	-9480
匈牙利	-9481
▁formed	-9482
▁soldiers	-9483
State	-9484
哈萨克斯坦	-9485
asc	-9486
▁ready	-9487
对联合国	-9488
▁按	-9489
负有	-9490
▁degradation	-9491
近东救济工程处	-9492
▁Sah	-9493
存在着	-9494
▁medic	-9495
不限成员名额	-9496
▁adopting	-9497
遗产	-9498
▁Where	-9499
▁equity	-9500
▁特别	-9501
概述	-9502
还应	-9503
带来的	-9504
▁Military	-9505
药物管制	-9506
▁Open	-9507
身体	-9508
▁Viet	-9509
消除对妇女一切形式	-9510
acro	-9511
不列颠及北爱尔兰	-9512
并不是	-9513
rs	-9514
▁appeals	-9515
▁incorporated	-9516
Cor	-9517
人口贩运	-9518
▁lines	-9519
和法律	-9520
在所有	-9521
▁sponsors	-9522
老年人	-9523
▁circulated	-9524
刑事法院	-9525
900	-9526
在一起	-9527
对象	-9528
每天	-9529
▁stor	-9530
照料	-9531
认定	-9532
▁dynam	-9533
ifications	-9534
▁airspace	-9535
温室	-9536
战略计划	-9537
▁Chad	-9538
汇率	-9539
▁demands	-9540
▁variety	-9541
岁以下	-9542
▁81.	-9543
▁labor	-9544
EL	-9545
zone	-9546
▁deem	-9547
▁Ste	-9548
▁facts	-9549
▁command	-9550
▁normal	-9551
▁gave	-9552
定罪	-9553
▁我国	-9554
▁dr	-9555
各会员国	-9556
atically	-9557
▁有些	-9558
▁soft	-9559
了在	-9560
杀害	-9561
灾难	-9562
▁distinc	-9563
大韩民国	-9564
宏观	-9565
侧重于	-9566
▁Taking	-9567
▁biodiversity	-9568
atures	-9569
越来越多	-9570
▁latest	-9571
▁Last	-9572
tempt	-9573
▁Science	-9574
加纳	-9575
▁male	-9576
▁Recognizing	-9577
地带	-9578
rator	-9579
tis	-9580
艺术	-9581
▁borders	-9582
treatment	-9583
▁integrate	-9584
▁Committees	-9585
▁projected	-9586
▁residence	-9587
所规定的	-9588
▁Lanka	-9589
该项目	-9590
▁可	-9591
rd	-9592
▁$1	-9593
ributing	-9594
▁inadequate	-9595
▁Conventions	-9596
公报	-9597
人口的	-9598
安全的	-9599
促进发展	-9600
提高认识	-9601
位于	-9602
oha	-9603
▁wished	-9604
▁Chemical	-9605
▁sm	-9606
▁2001.	-9607
很少	-9608
标准和	-9609
▁letters	-9610
▁Poland	-9611
的结论	-9612
atar	-9613
阐述	-9614
通技术	-9615
ception	-9616
sharing	-9617
▁Joh	-9618
urban	-9619
ING	-9620
▁fear	-9621
▁managed	-9622
区别	-9623
▁wider	-9624
段所述	-9625
捷克共和国	-9626
单一	-9627
是不	-9628
▁ultim	-9629
▁trading	-9630
拉斯	-9631
▁Racial	-9632
▁Cambodia	-9633
ambia	-9634
▁vocational	-9635
▁preparations	-9636
内政	-9637
▁Kaz	-9638
作为一个	-9639
▁feas	-9640
Am	-9641
iaries	-9642
▁promoted	-9643
▁intellectual	-9644
坚定	-9645
acted	-9646
orient	-9647
全面的	-9648
得出	-9649
▁attempt	-9650
▁inventory	-9651
怀孕	-9652
世界上	-9653
▁sets	-9654
▁served	-9655
开幕	-9656
量的	-9657
出现的	-9658
国家工作队	-9659
▁disposal	-9660
ressing	-9661
破产	-9662
▁随着	-9663
▁reve	-9664
▁dedicated	-9665
▁engine	-9666
简单	-9667
UNEP	-9668
图书	-9669
招募	-9670
▁IT	-9671
程序和	-9672
▁700	-9673
内部监督	-9674
▁wrong	-9675
纪律	-9676
▁FAO	-9677
世界人权	-9678
▁big	-9679
▁Indeed	-9680
封锁	-9681
▁destroy	-9682
▁livelihood	-9683
缓解	-9684
lor	-9685
关于在	-9686
▁83.	-9687
▁conservation	-9688
正当	-9689
apter	-9690
▁reim	-9691
▁helping	-9692
许多国家	-9693
▁ministerial	-9694
的同时	-9695
▁exclusive	-9696
▁请秘书长	-9697
▁believed	-9698
▁VII	-9699
▁hos	-9700
审议大会	-9701
机场	-9702
▁Tanz	-9703
的最新	-9704
▁requesting	-9705
外国直接投资	-9706
▁detainees	-9707
▁advancement	-9708
▁Use	-9709
互联网	-9710
▁conj	-9711
▁%	-9712
上空	-9713
encing	-9714
外交部	-9715
▁productivity	-9716
tors	-9717
serv	-9718
联刚	-9719
的核心	-9720
▁location	-9721
有能力	-9722
▁extradition	-9723
▁所	-9724
150	-9725
mmunition	-9726
▁indirect	-9727
的成果	-9728
udgetary	-9729
▁wat	-9730
▁prohibition	-9731
▁Mus	-9732
及太平洋	-9733
▁intervention	-9734
判处	-9735
并就	-9736
CRP	-9737
的缔约国	-9738
核定	-9739
▁WHO	-9740
lock	-9741
▁mercury	-9742
▁warning	-9743
MP	-9744
▁Alban	-9745
在全球	-9746
▁82.	-9747
▁建立	-9748
而不	-9749
派遣国	-9750
▁segment	-9751
多哈	-9752
早期	-9753
▁sw	-9754
CONF	-9755
▁Issues	-9756
▁valuable	-9757
储备	-9758
SS	-9759
▁Stock	-9760
▁支持	-9761
▁autom	-9762
▁utilization	-9763
玻利维亚	-9764
utting	-9765
物资	-9766
之间的关系	-9767
生存	-9768
▁households	-9769
在国家一级	-9770
收到了	-9771
温室气体	-9772
的话	-9773
罪犯	-9774
▁instead	-9775
▁path	-9776
贸易和发展	-9777
性意见	-9778
cession	-9779
▁declar	-9780
因特	-9781
怀疑	-9782
索赔人	-9783
▁Costa	-9784
▁1999.	-9785
的请求	-9786
▁considerations	-9787
▁instruc	-9788
促成	-9789
bek	-9790
▁experienced	-9791
▁Mat	-9792
▁commended	-9793
▁方案	-9794
▁ans	-9795
你们	-9796
duction	-9797
▁outputs	-9798
roc	-9799
Ar	-9800
关心	-9801
地域	-9802
干旱	-9803
onization	-9804
▁redeploy	-9805
▁disag	-9806
▁demobilization	-9807
▁Investig	-9808
▁adjustment	-9809
老年	-9810
▁Never	-9811
咨询机构	-9812
重要性	-9813
▁Adviser	-9814
97	-9815
ITR	-9816
▁reb	-9817
▁reality	-9818
▁expresses	-9819
肯定	-9820
当事方	-9821
首要	-9822
)).	-9823
斯洛伐	-9824
▁Reduction	-9825
的地方	-9826
88	-9827
首席	-9828
▁Penal	-9829
士兵	-9830
和文化	-9831
斯洛伐克	-9832
农民	-9833
▁object	-9834
/52	-9835
外国人	-9836
接受的	-9837
委员会建议	-9838
披露	-9839
▁regret	-9840
妇女和女孩	-9841
(<	-9842
▁biennial	-9843
.7	-9844
▁pill	-9845
产生了	-9846
确定了	-9847
▁fishing	-9848
▁Assessment	-9849
行事	-9850
独立的	-9851
是一种	-9852
附属机构	-9853
.1).	-9854
▁invitation	-9855
领空	-9856
▁balanced	-9857
uvenile	-9858
仇外心理	-9859
-2010	-9860
罗马尼亚	-9861
▁deaths	-9862
份报告	-9863
不列颠及北爱尔兰联合王国	-9864
专员办事处	-9865
据称	-9866
▁equival	-9867
南方	-9868
消除对妇女一切形式歧视公约	-9869
▁See	-9870
missible	-9871
亚洲及太平洋	-9872
阐明	-9873
加坡	-9874
onial	-9875
▁counsel	-9876
▁mitig	-9877
enegal	-9878
该项	-9879
▁WTO	-9880
债权	-9881
文化和	-9882
贸易法委员会	-9883
▁behaviour	-9884
将有助于	-9885
▁应当	-9886
一方面	-9887
▁Gre	-9888
▁Anti	-9889
坚决	-9890
全民	-9891
▁Each	-9892
级别	-9893
▁84.	-9894
▁cli	-9895
▁Document	-9896
▁monit	-9897
▁professionals	-9898
▁sixth	-9899
racting	-9900
邻国	-9901
▁contingent	-9902
▁Employment	-9903
战略和	-9904
▁homes	-9905
▁Youth	-9906
▁performed	-9907
工作者	-9908
普及	-9909
来看	-9910
强调指出	-9911
主导	-9912
旅费	-9913
▁intolerance	-9914
创建	-9915
ales	-9916
▁belonging	-9917
rabudgetary	-9918
所属	-9919
的组织	-9920
必要措施	-9921
乌拉圭	-9922
因特网	-9923
▁room	-9924
▁names	-9925
▁recognizing	-9926
南苏丹	-9927
▁hun	-9928
提供资料	-9929
▁unders	-9930
支柱	-9931
▁Car	-9932
规划和	-9933
被迫	-9934
ani	-9935
▁Sett	-9936
人权和基本自由	-9937
▁fisheries	-9938
▁procedural	-9939
是一项	-9940
/2007	-9941
阿尔巴	-9942
▁generation	-9943
巡逻	-9944
疟疾	-9945
/2002	-9946
2005)	-9947
▁entreprene	-9948
▁Rica	-9949
以法	-9950
库存	-9951
没收	-9952
▁欧洲联盟	-9953
▁它还	-9954
目标的	-9955
ritish	-9956
失去	-9957
里约	-9958
▁withdrawal	-9959
▁ep	-9960
企图	-9961
▁reti	-9962
▁reviewing	-9963
并加强	-9964
▁adequately	-9965
在这些	-9966
cri	-9967
▁Occupied	-9968
萨尔瓦	-9969
病毒	-9970
erce	-9971
ITRAL	-9972
质疑	-9973
附近	-9974
▁remedy	-9975
▁keeping	-9976
▁inequality	-9977
武力	-9978
问题工作组	-9979
▁nearly	-9980
elecomm	-9981
卡塔尔	-9982
▁Prac	-9983
公共部门会计准则	-9984
▁9,	-9985
▁stable	-9986
不妨	-9987
世贸组织	-9988
提交报告	-9989
职权范围	-9990
▁Communications	-9991
各类	-9992
▁built	-9993
▁attributable	-9994
和程序	-9995
ull	-9996
▁simply	-9997
▁Concern	-9998
▁organize	-9999
排斥	-10000
akhstan	-10001
董事会	-10002
角色	-10003
▁facility	-10004
很难	-10005
▁Doha	-10006
▁sometimes	-10007
筹备委员会	-10008
▁station	-10009
饥饿	-10010
▁Tanzania	-10011
▁defenders	-10012
▁accountable	-10013
丧失	-10014
unteers	-10015
三分	-10016
ething	-10017
意识到	-10018
▁Arabia	-10019
aired	-10020
▁到	-10021
▁leaving	-10022
▁transmitting	-10023
SAS	-10024
itals	-10025
高于	-10026
▁Heads	-10027
▁allowance	-10028
vak	-10029
▁papers	-10030
▁Treatment	-10031
使他们	-10032
登记册	-10033
▁nutrition	-10034
绑架	-10035
或有辱人格	-10036
的可	-10037
acity	-10038
▁virt	-10039
臭氧	-10040
▁operate	-10041
isation	-10042
▁version	-10043
▁seeks	-10044
国别	-10045
动员	-10046
ecuted	-10047
region	-10048
▁Earth	-10049
▁guaranteed	-10050
eared	-10051
84	-10052
个别	-10053
也在	-10054
▁online	-10055
和儿童	-10056
▁British	-10057
▁commodity	-10058
跟踪	-10059
▁predict	-10060
翻译	-10061
▁harassment	-10062
▁Nevertheless	-10063
▁academic	-10064
参照	-10065
▁Local	-10066
一条	-10067
举行会议	-10068
形势	-10069
DF	-10070
▁conjunction	-10071
▁cluster	-10072
▁1996,	-10073
▁Dist	-10074
注册	-10075
民间社会组织	-10076
▁charged	-10077
▁requiring	-10078
86	-10079
ser	-10080
人权机构	-10081
第九	-10082
▁1998.	-10083
▁transfers	-10084
▁cou	-10085
关切地注意到	-10086
在过去	-10087
▁optim	-10088
▁Similarly	-10089
85	-10090
▁Lu	-10091
▁85.	-10092
能够在	-10093
▁techni	-10094
kers	-10095
妇女和女童	-10096
项目厅	-10097
▁conclude	-10098
建立信任	-10099
的实际	-10100
普遍定期	-10101
行政首长	-10102
▁punish	-10103
▁join	-10104
▁Pun	-10105
▁evaluations	-10106
95	-10107
▁tenth	-10108
▁Official	-10109
季度	-10110
第三次	-10111
fire	-10112
▁movements	-10113
contributing	-10114
关押	-10115
社会保障	-10116
▁officer	-10117
▁Relations	-10118
电信	-10119
全系统	-10120
▁introduce	-10121
▁ben	-10122
▁只有	-10123
▁explore	-10124
▁substance	-10125
将由	-10126
根源	-10127
ps	-10128
band	-10129
ditionally	-10130
ja	-10131
见第	-10132
▁首先	-10133
言论自由	-10134
▁继续	-10135
▁Belgium	-10136
uine	-10137
-20	-10138
完善	-10139
back	-10140
▁determining	-10141
▁subparagraph	-10142
▁reportedly	-10143
和重返社会	-10144
▁choice	-10145
/2003	-10146
可持续的	-10147
▁customary	-10148
▁人们	-10149
ancies	-10150
位置	-10151
两种	-10152
依靠	-10153
▁Qu	-10154
▁journalists	-10155
▁Not	-10156
联合国在	-10157
乌兹	-10158
有力的	-10159
▁southern	-10160
93	-10161
事故	-10162
发生了	-10163
指导原则	-10164
绩效	-10165
▁Mali	-10166
负面	-10167
包括通过	-10168
▁financed	-10169
▁functional	-10170
货币基金	-10171
Terrorism	-10172
乌兹别	-10173
年为	-10174
领取	-10175
安全部队	-10176
▁Emerg	-10177
▁overview	-10178
不符合	-10179
图书馆	-10180
-2001	-10181
▁code	-10182
向联合国	-10183
IM	-10184
▁Enh	-10185
▁larger	-10186
▁allowing	-10187
的非	-10188
的教育	-10189
施加	-10190
曾经	-10191
▁Sam	-10192
财政资源	-10193
▁contem	-10194
▁vehicle	-10195
警方	-10196
小武器和轻武器	-10197
进度	-10198
信通技术	-10199
▁grate	-10200
▁UNCITRAL	-10201
▁seriously	-10202
rem	-10203
▁stim	-10204
▁faith	-10205
▁prejud	-10206
▁Transport	-10207
穆斯	-10208
同等	-10209
尼加拉	-10210
arms	-10211
最大的	-10212
ifying	-10213
resses	-10214
▁以及	-10215
尼加拉瓜	-10216
▁newly	-10217
被占领土	-10218
bound	-10219
▁something	-10220
和行政	-10221
▁gains	-10222
▁check	-10223
维持和平行动部	-10224
▁Angola	-10225
作业	-10226
▁deterior	-10227
学家	-10228
和政治	-10229
对妇女的	-10230
▁covers	-10231
咨询服务	-10232
▁continuous	-10233
▁Hung	-10234
一套	-10235
▁14,	-10236
绿色	-10237
试点	-10238
国际法院	-10239
vated	-10240
萨尔瓦多	-10241
▁pi	-10242
的威胁	-10243
▁insec	-10244
arag	-10245
▁comprising	-10246
/55	-10247
▁tot	-10248
表示欢迎	-10249
▁Statement	-10250
▁salary	-10251
思想	-10252
▁You	-10253
圆桌	-10254
进一步加强	-10255
1999)	-10256
undred	-10257
▁claimed	-10258
▁Having	-10259
▁reaching	-10260
▁Legisl	-10261
▁returned	-10262
要求的	-10263
este	-10264
领袖	-10265
ugg	-10266
条约的	-10267
▁submissions	-10268
行为者	-10269
▁devoted	-10270
▁grateful	-10271
ourable	-10272
▁certific	-10273
巴勒斯坦人	-10274
ruguay	-10275
议事规则第	-10276
▁custody	-10277
▁integral	-10278
▁extremely	-10279
一部分	-10280
配置	-10281
附件二	-10282
CT	-10283
普查	-10284
▁Salv	-10285
onomy	-10286
▁fixed	-10287
kh	-10288
保健服务	-10289
▁else	-10290
▁accomplish	-10291
▁decentral	-10292
▁Constitutional	-10293
之二	-10294
▁presidential	-10295
▁currency	-10296
/2004	-10297
打击恐怖主义	-10298
▁cul	-10299
▁coherent	-10300
档案	-10301
▁demonstrate	-10302
▁evol	-10303
inas	-10304
▁constant	-10305
习俗	-10306
owned	-10307
扩展	-10308
▁86.	-10309
▁behind	-10310
Proliferation	-10311
/2005	-10312
▁Kazakhstan	-10313
▁让	-10314
运行	-10315
阿尔巴尼亚	-10316
▁Environmental	-10317
区分	-10318
多次	-10319
以及与	-10320
gregated	-10321
绝对	-10322
ova	-10323
▁consolidated	-10324
94	-10325
uls	-10326
客观	-10327
指称	-10328
童工	-10329
这种情况	-10330
▁pertaining	-10331
▁buy	-10332
▁并	-10333
▁displacement	-10334
▁谨	-10335
ITA	-10336
国内法	-10337
▁Right	-10338
▁composition	-10339
▁linkages	-10340
海上	-10341
召集	-10342
▁prob	-10343
▁orient	-10344
▁日本	-10345
▁Based	-10346
将为	-10347
▁middle	-10348
色情	-10349
▁liquid	-10350
更多地	-10351
法律援助	-10352
填补	-10353
的保护	-10354
▁chain	-10355
▁coastal	-10356
.3/6	-10357
随时	-10358
gun	-10359
作出贡献	-10360
▁Island	-10361
▁recalls	-10362
▁Developed	-10363
繁荣	-10364
▁cod	-10365
▁cong	-10366
▁stages	-10367
/23	-10368
reoty	-10369
▁Salvador	-10370
独特	-10371
方面的作用	-10372
▁abroad	-10373
忽视	-10374
直到	-10375
出席了	-10376
补救办法	-10377
▁balances	-10378
CA	-10379
生计	-10380
经社	-10381
定居点	-10382
升级	-10383
▁forests	-10384
▁assisted	-10385
和多	-10386
▁indeed	-10387
."	-10388
▁vacancy	-10389
停火	-10390
铭记	-10391
aint	-10392
▁progressive	-10393
关闭	-10394
尽量	-10395
iri	-10396
▁urge	-10397
▁Organized	-10398
▁prevail	-10399
和可	-10400
▁ed	-10401
他们在	-10402
提供服务	-10403
▁rob	-10404
履行机构	-10405
净额	-10406
▁won	-10407
▁zones	-10408
或在	-10409
支援	-10410
▁vide	-10411
▁Denmark	-10412
业务活动	-10413
优势	-10414
空中	-10415
武装团体	-10416
会期间	-10417
▁Boli	-10418
▁School	-10419
日常	-10420
▁everyone	-10421
▁Notes	-10422
▁Armenia	-10423
想法	-10424
麦隆	-10425
弱势群体	-10426
(2004)	-10427
营地	-10428
责任的	-10429
▁Senegal	-10430
差别	-10431
%).	-10432
喀麦隆	-10433
态发展	-10434
▁dangerous	-10435
关税	-10436
▁north	-10437
.15	-10438
▁allegedly	-10439
▁farmers	-10440
IK	-10441
比绍	-10442
逐渐	-10443
▁stocks	-10444
▁negotiation	-10445
物的	-10446
约翰	-10447
▁briefing	-10448
▁showed	-10449
防止和	-10450
结婚	-10451
▁68	-10452
达成的	-10453
去年	-10454
▁appears	-10455
▁reliable	-10456
▁ones	-10457
▁explanation	-10458
ita	-10459
▁macro	-10460
和地方	-10461
时间表	-10462
基于性别	-10463
▁过去	-10464
和服务	-10465
▁memorandum	-10466
测试	-10467
的暴力	-10468
▁国际社会	-10469
▁我们认为	-10470
保存	-10471
婴儿	-10472
.2/6	-10473
必需	-10474
时限	-10475
恐怖分子	-10476
▁dele	-10477
粮食计划署	-10478
应由	-10479
金额	-10480
▁Observer	-10481
▁lasting	-10482
▁carbon	-10483
▁surveys	-10484
以使	-10485
穆斯林	-10486
▁89.	-10487
公里	-10488
/2008	-10489
▁发展	-10490
▁Chapter	-10491
ye	-10492
▁map	-10493
▁五	-10494
斯洛文	-10495
▁CON	-10496
减少了	-10497
总干事	-10498
负责人	-10499
▁defend	-10500
▁Rome	-10501
该报告	-10502
▁facilitated	-10503
理论	-10504
有关国家	-10505
份额	-10506
缺陷	-10507
这里	-10508
ECD	-10509
▁Among	-10510
祝贺	-10511
lder	-10512
lawful	-10513
▁enforced	-10514
工作中	-10515
▁League	-10516
abilization	-10517
变动	-10518
的最佳	-10519
预算外	-10520
▁duration	-10521
条文	-10522
▁Tre	-10523
▁train	-10524
▁bearing	-10525
化碳	-10526
生产总值	-10527
的机制	-10528
▁lawyers	-10529
▁aggression	-10530
造成了	-10531
▁testing	-10532
▁computer	-10533
▁facilitation	-10534
、1	-10535
▁alternatives	-10536
现状	-10537
第十四	-10538
▁fraud	-10539
发展议程	-10540
▁extrabudgetary	-10541
的立法	-10542
incial	-10543
▁Russia	-10544
▁flexibility	-10545
向其	-10546
hibition	-10547
▁rejected	-10548
家属	-10549
▁Pan	-10550
的报告中	-10551
建设性	-10552
▁Bet	-10553
risons	-10554
▁bench	-10555
iated	-10556
▁drew	-10557
▁Procurement	-10558
▁Rio	-10559
ography	-10560
▁successfully	-10561
▁Even	-10562
▁inflation	-10563
包括对	-10564
▁900	-10565
生产和	-10566
他在	-10567
▁inputs	-10568
海事	-10569
▁thought	-10570
▁AS	-10571
itage	-10572
提供有关	-10573
resident	-10574
的人口	-10575
▁88.	-10576
▁notice	-10577
po	-10578
观测	-10579
再生能源	-10580
RA	-10581
也许	-10582
原则和	-10583
▁Welcomes	-10584
事业	-10585
▁tit	-10586
entives	-10587
和监测	-10588
性别观点	-10589
▁2008-2009	-10590
▁unf	-10591
条的规定	-10592
▁visited	-10593
▁Disabilities	-10594
▁corresponding	-10595
其对	-10596
缔约方大会	-10597
较低	-10598
/58/	-10599
inery	-10600
▁consolidation	-10601
ident	-10602
▁在本报告所述期间	-10603
▁Transitional	-10604
操作	-10605
和培训	-10606
人力资源管理	-10607
▁formulated	-10608
探索	-10609
▁constituted	-10610
▁marginal	-10611
西岸	-10612
▁align	-10613
时代	-10614
▁lay	-10615
示范法	-10616
cents	-10617
▁grants	-10618
以及为	-10619
▁Acting	-10620
▁psychological	-10621
格式	-10622
受教育	-10623
▁Id	-10624
▁writing	-10625
▁Evaluation	-10626
▁wage	-10627
捍卫	-10628
的定义	-10629
国家警察	-10630
养护	-10631
▁conventional	-10632
德里	-10633
▁genuine	-10634
因为它	-10635
▁Yemen	-10636
纠正	-10637
▁flag	-10638
▁stereoty	-10639
求斯	-10640
▁transitional	-10641
排放量	-10642
arco	-10643
like	-10644
hr	-10645
▁ammunition	-10646
otes	-10647
不人道或有辱人格	-10648
提请注意	-10649
杀伤人员	-10650
▁Poverty	-10651
▁Air	-10652
总结	-10653
的目的是	-10654
▁Regarding	-10655
吉尔	-10656
毛里求斯	-10657
apore	-10658
92	-10659
有机	-10660
每一个	-10661
oriented	-10662
黑山	-10663
makers	-10664
法庭的	-10665
千年宣言	-10666
照会	-10667
瓦尔	-10668
过度	-10669
赞赏地注意到	-10670
司长	-10671
预警	-10672
还指出	-10673
imb	-10674
▁accession	-10675
issau	-10676
案件的	-10677
粮食安全	-10678
▁或	-10679
▁interaction	-10680
免遭	-10681
▁assessing	-10682
运用	-10683
▁counse	-10684
▁explosive	-10685
月份	-10686
▁Mig	-10687
orest	-10688
▁changed	-10689
列为	-10690
复原	-10691
相当于	-10692
ength	-10693
▁thousands	-10694
消费者	-10695
▁pati	-10696
大不列颠及北爱尔兰联合王国	-10697
▁reply	-10698
▁patterns	-10699
rates	-10700
▁Organ	-10701
▁87.	-10702
大规模毁灭性武器	-10703
▁subregion	-10704
条款草案	-10705
▁felt	-10706
.)	-10707
民兵	-10708
▁Adv	-10709
敌对	-10710
▁suggest	-10711
禁毒	-10712
▁verbal	-10713
不过	-10714
▁outs	-10715
▁exclusion	-10716
▁Encourages	-10717
oth	-10718
良好做法	-10719
杀伤人员地雷	-10720
标准的	-10721
开发银行	-10722
▁equally	-10723
▁replace	-10724
款的	-10725
禁运	-10726
icing	-10727
▁reflecting	-10728
近年来	-10729
化学武器	-10730
谅解备忘录	-10731
乌兹别克斯坦	-10732
受伤	-10733
ulsion	-10734
必要时	-10735
▁mining	-10736
▁Ombudsman	-10737
▁board	-10738
将对	-10739
ptions	-10740
▁wa	-10741
需要在	-10742
TS	-10743
违法	-10744
健康和	-10745
teneg	-10746
假设	-10747
不结盟	-10748
▁Both	-10749
▁1980	-10750
▁Statements	-10751
痛苦	-10752
▁imper	-10753
协调委员会	-10754
列出	-10755
▁议程项目	-10756
ensions	-10757
公民权利和政治权利国际公约	-10758
▁特别是	-10759
和妇女	-10760
▁pleased	-10761
▁Inst	-10762
▁Ghana	-10763
▁manifest	-10764
人为	-10765
▁Cross	-10766
▁format	-10767
▁amounted	-10768
▁reinforce	-10769
极其	-10770
充分的	-10771
▁compil	-10772
混合行动	-10773
apping	-10774
违背	-10775
项目标	-10776
而在	-10777
的地区	-10778
ept	-10779
▁Nic	-10780
权能	-10781
常规武器	-10782
删除	-10783
▁bul	-10784
经费的	-10785
▁Del	-10786
▁volume	-10787
不罚	-10788
会晤	-10789
获得通过	-10790
▁Sixth	-10791
▁repatriation	-10792
grammes	-10793
▁Protocols	-10794
▁answ	-10795
▁quanti	-10796
▁inhuman	-10797
▁instances	-10798
▁providers	-10799
人身	-10800
年初	-10801
条和第	-10802
东西	-10803
rah	-10804
宝贵	-10805
▁Greece	-10806
▁delays	-10807
持有	-10808
表示关注	-10809
▁Deleg	-10810
▁pages	-10811
▁treated	-10812
公路	-10813
种植	-10814
离职	-10815
▁news	-10816
价值观	-10817
▁rational	-10818
▁委员会建议缔约国	-10819
的大	-10820
▁Ver	-10821
▁congrat	-10822
配合	-10823
▁75	-10824
▁qualified	-10825
gor	-10826
几内亚比绍	-10827
▁harmonization	-10828
rugg	-10829
迄今为止	-10830
▁adjustments	-10831
布尔	-10832
调查和	-10833
/59/	-10834
endly	-10835
老龄	-10836
zed	-10837
号和第	-10838
在内	-10839
巴塞尔	-10840
▁scheme	-10841
▁orders	-10842
提交一份	-10843
tr	-10844
▁diver	-10845
▁offers	-10846
为什么	-10847
▁revenue	-10848
移动	-10849
inced	-10850
个人的	-10851
▁fighting	-10852
▁maritime	-10853
也门	-10854
▁expos	-10855
▁hundred	-10856
ecture	-10857
racted	-10858
ulsory	-10859
▁usually	-10860
/54	-10861
问题是	-10862
(1)	-10863
.12	-10864
根据其	-10865
erend	-10866
▁Romania	-10867
▁incurred	-10868
下放	-10869
将使	-10870
用品	-10871
的发言	-10872
继续在	-10873
▁disch	-10874
▁GEF	-10875
▁hazardous	-10876
和性	-10877
▁Arms	-10878
共和国总统	-10879
巨大的	-10880
rees	-10881
该委员会	-10882
▁terrorists	-10883
▁patrol	-10884
▁Monteneg	-10885
util	-10886
亚太经社会	-10887
▁properly	-10888
▁introducing	-10889
reto	-10890
▁Current	-10891
公司的	-10892
指导方针	-10893
urning	-10894
▁Region	-10895
▁任何	-10896
▁parent	-10897
VI	-10898
了一份	-10899
加紧	-10900
count	-10901
▁invasion	-10902
一旦	-10903
▁denied	-10904
▁preval	-10905
▁Portugal	-10906
的决议草案	-10907
▁firms	-10908
关联	-10909
水资源	-10910
▁equivalent	-10911
▁phenomenon	-10912
加利亚	-10913
▁$1,	-10914
▁Investment	-10915
培养	-10916
▁neither	-10917
▁input	-10918
全力	-10919
bursement	-10920
▁consultants	-10921
▁&	-10922
.1/6	-10923
▁xenophobia	-10924
▁agents	-10925
▁Summary	-10926
▁speed	-10927
▁Standing	-10928
▁annually	-10929
席位	-10930
▁Tog	-10931
▁mark	-10932
▁hunger	-10933
常驻代表	-10934
anges	-10935
不得不	-10936
▁confidenti	-10937
现已	-10938
蒙古	-10939
经合	-10940
▁90.	-10941
82	-10942
▁Directorate	-10943
▁regardless	-10944
冻结	-10945
加大	-10946
▁Inte	-10947
▁Progress	-10948
ameroon	-10949
▁difference	-10950
▁techniques	-10951
▁finding	-10952
流程	-10953
足够的	-10954
并促进	-10955
大楼	-10956
▁Within	-10957
哈马	-10958
▁managing	-10959
的贡献	-10960
保加利亚	-10961
行政和预算问题咨询委员会	-10962
▁environmentally	-10963
和有	-10964
▁Decree	-10965
▁starting	-10966
开办	-10967
牙买	-10968
的政府	-10969
▁strugg	-10970
▁prefer	-10971
都能	-10972
▁dup	-10973
残疾人权利	-10974
/2010	-10975
日终了	-10976
▁schemes	-10977
理事会第	-10978
▁refers	-10979
▁neighbouring	-10980
难民营	-10981
斯洛文尼亚	-10982
各机构	-10983
▁electric	-10984
简报	-10985
/50	-10986
培训班	-10987
/24	-10988
帐户	-10989
知情	-10990
进行审查	-10991
给安全理事会主席	-10992
黎部队	-10993
organiz	-10994
▁responded	-10995
届特别会议	-10996
▁suppor	-10997
中等	-10998
该国政府	-10999
▁renewed	-11000
▁teaching	-11001
▁sides	-11002
oa	-11003
▁relate	-11004
▁br	-11005
牙买加	-11006
book	-11007
受害者的	-11008
被剥夺	-11009
▁seems	-11010
unication	-11011
紧迫	-11012
为执行	-11013
▁illust	-11014
▁summar	-11015
仍有	-11016
所得	-11017
提起	-11018
有关的问题	-11019
▁prioritiz	-11020
暂时	-11021
Leste	-11022
▁Bl	-11023
▁landlocked	-11024
▁diversi	-11025
▁pollution	-11026
保安	-11027
Laughter	-11028
▁software	-11029
文明	-11030
▁uncertain	-11031
组织在	-11032
▁bat	-11033
难民事务	-11034
有罪不罚	-11035
都在	-11036
▁seas	-11037
委员会关于	-11038
和社区	-11039
社会经济	-11040
▁south	-11041
▁notably	-11042
低收入	-11043
▁distinction	-11044
设置	-11045
▁storage	-11046
▁Migration	-11047
oods	-11048
▁IS	-11049
的比例	-11050
特别程序	-11051
▁Guide	-11052
以上的	-11053
增加到	-11054
zbek	-11055
▁acceptable	-11056
计划和	-11057
▁tend	-11058
号决议所设	-11059
▁expanding	-11060
2000)	-11061
主席的	-11062
世界贸易	-11063
▁hol	-11064
否则	-11065
基会	-11066
明确的	-11067
▁liabilities	-11068
ets	-11069
▁、	-11070
发表的	-11071
部分第	-11072
▁How	-11073
▁length	-11074
制约	-11075
接收	-11076
儿基会	-11077
▁Uruguay	-11078
税收	-11079
▁Appeals	-11080
▁absol	-11081
的家庭	-11082
该地区	-11083
▁Presid	-11084
▁district	-11085
正是	-11086
煽动	-11087
▁Qatar	-11088
▁schedule	-11089
已被	-11090
▁Building	-11091
维修	-11092
▁northern	-11093
▁Es	-11094
▁incentives	-11095
Women	-11096
auriti	-11097
▁贸发会议	-11098
cription	-11099
▁models	-11100
宏观经济	-11101
固定	-11102
警务	-11103
能力和	-11104
本决议	-11105
▁manufacture	-11106
撤销	-11107
pol	-11108
工作和	-11109
▁flexible	-11110
准入	-11111
看来	-11112
▁Terrorism	-11113
▁Organizations	-11114
▁Basel	-11115
▁industries	-11116
▁至于	-11117
节目	-11118
会费	-11119
外勤支助	-11120
▁Tunisia	-11121
▁incorporate	-11122
▁plant	-11123
驻地协调员	-11124
回答	-11125
▁Il	-11126
angible	-11127
▁analytical	-11128
普遍定期审议	-11129
▁gather	-11130
▁filed	-11131
LA	-11132
劳动力市场	-11133
书记	-11134
DR	-11135
▁colle	-11136
一般事务人员	-11137
合格	-11138
/2009	-11139
号法令	-11140
世界人权宣言	-11141
9)	-11142
行动纲要	-11143
▁hearing	-11144
配偶	-11145
研究报告	-11146
▁employers	-11147
▁然后	-11148
至关重要的	-11149
年前	-11150
高级专员办事处	-11151
率为	-11152
▁manual	-11153
雇佣	-11154
文件的	-11155
▁digital	-11156
▁understood	-11157
▁Bolivia	-11158
和分析	-11159
对所有	-11160
开展合作	-11161
我国代表团	-11162
跨界	-11163
说明了	-11164
▁worth	-11165
免受	-11166
选民	-11167
的进展	-11168
培训方案	-11169
inter	-11170
▁Fas	-11171
-1999	-11172
▁occupying	-11173
▁anticipated	-11174
丰富	-11175
inces	-11176
▁stay	-11177
▁Outer	-11178
-10	-11179
▁euro	-11180
▁法律	-11181
▁经济	-11182
专家会议	-11183
巴勒斯坦领土	-11184
有着	-11185
▁literacy	-11186
用以	-11187
开展的活动	-11188
马其	-11189
简化	-11190
erican	-11191
动态	-11192
▁oral	-11193
▁SBI	-11194
▁trib	-11195
ongol	-11196
▁finds	-11197
削弱	-11198
马其顿	-11199
▁responding	-11200
▁dimensions	-11201
▁arbitration	-11202
钻石	-11203
▁buildings	-11204
不够	-11205
▁93.	-11206
abil	-11207
▁92.	-11208
▁Montenegro	-11209
▁negotiating	-11210
▁priv	-11211
lan	-11212
▁went	-11213
▁lists	-11214
▁reserve	-11215
▁issuance	-11216
▁abuses	-11217
▁Muslim	-11218
利尔	-11219
▁确认	-11220
▁municipal	-11221
确保在	-11222
▁evaluate	-11223
出售	-11224
▁limitations	-11225
reet	-11226
▁Montre	-11227
阿卜	-11228
给安全理事会主席的信	-11229
WP	-11230
ek	-11231
阿布	-11232
▁IPSAS	-11233
▁allows	-11234
清除	-11235
为实现	-11236
的危险	-11237
优惠	-11238
▁comprom	-11239
▁intensify	-11240
部门和	-11241
第二个	-11242
及其对	-11243
成功地	-11244
行动方案	-11245
▁Educational	-11246
▁citizenship	-11247
▁Session	-11248
▁historical	-11249
▁Least	-11250
▁administer	-11251
陶宛	-11252
▁ensu	-11253
rey	-11254
▁renewable	-11255
olonization	-11256
▁inspection	-11257
ensing	-11258
▁Libyan	-11259
国际贸易	-11260
▁generate	-11261
方便	-11262
立陶宛	-11263
▁下	-11264
之处	-11265
沟通	-11266
放射	-11267
iver	-11268
▁94.	-11269
之间的合作	-11270
均衡	-11271
▁businesses	-11272
.]	-11273
国外	-11274
进行合作	-11275
erendum	-11276
▁consc	-11277
咨商	-11278
▁contractual	-11279
月的	-11280
▁correc	-11281
组合	-11282
▁Det	-11283
近期	-11284
▁(3)	-11285
▁purchase	-11286
▁2006-2007	-11287
海外	-11288
能否	-11289
和信息	-11290
/57/	-11291
(2008	-11292
公认	-11293
蒙特利尔	-11294
暂行	-11295
米尼	-11296
与国家	-11297
刑事法庭	-11298
month	-11299
▁wastes	-11300
▁mobility	-11301
TER	-11302
的支助	-11303
istical	-11304
auritius	-11305
▁今天	-11306
最多	-11307
▁kept	-11308
家人	-11309
▁Slovak	-11310
▁applying	-11311
给秘书长的信	-11312
出现了	-11313
加强了	-11314
71	-11315
▁Uzbek	-11316
任何其他	-11317
可能是	-11318
的服务	-11319
消除对妇女歧视	-11320
▁Maced	-11321
▁loans	-11322
/52/	-11323
▁Tal	-11324
▁Water	-11325
发展筹资	-11326
▁1995,	-11327
▁Att	-11328
分布	-11329
美元的	-11330
vise	-11331
▁196	-11332
特使	-11333
提供技术援助	-11334
其工作	-11335
▁Annual	-11336
▁define	-11337
Corr	-11338
fortun	-11339
onds	-11340
▁的项目	-11341
Bissau	-11342
金融危机	-11343
ourse	-11344
GC	-11345
循环	-11346
联合国机构	-11347
border	-11348
NA	-11349
▁arrangement	-11350
德班	-11351
holder	-11352
▁mobilize	-11353
▁Inspection	-11354
接近	-11355
▁Nicarag	-11356
新加坡	-11357
amed	-11358
▁removal	-11359
的第三	-11360
管理人员	-11361
▁intelligence	-11362
电台	-11363
强迫失踪	-11364
venia	-11365
titudes	-11366
▁competitive	-11367
▁declarations	-11368
▁一词	-11369
▁Indian	-11370
fficiently	-11371
▁fees	-11372
▁rapidly	-11373
▁deprived	-11374
▁Singapore	-11375
第六十	-11376
▁enshr	-11377
water	-11378
吉斯	-11379
并应	-11380
以提高	-11381
成员国的	-11382
,1	-11383
愿望	-11384
▁在这一	-11385
缔约国会议	-11386
orough	-11387
haps	-11388
▁Log	-11389
鼓舞	-11390
政策和方案	-11391
▁Montreal	-11392
.8	-11393
并使	-11394
意图	-11395
辅助	-11396
具体的	-11397
▁Supplement	-11398
-0	-11399
间的	-11400
教育的	-11401
和司法	-11402
尽早	-11403
▁install	-11404
▁mandatory	-11405
消极	-11406
ithu	-11407
▁seventh	-11408
ils	-11409
▁prisons	-11410
核武器条约	-11411
inting	-11412
▁sensi	-11413
▁liaison	-11414
说法	-11415
let	-11416
或处罚	-11417
▁receip	-11418
▁relationships	-11419
▁wealth	-11420
尔多瓦	-11421
alys	-11422
▁begun	-11423
难民专员办事处	-11424
▁entrepreneurs	-11425
该决议草案	-11426
effective	-11427
▁passed	-11428
其余	-11429
/25	-11430
▁reserves	-11431
▁hus	-11432
▁machinery	-11433
能力的	-11434
▁desertification	-11435
并于	-11436
内部监督事务厅	-11437
提到的	-11438
▁aged	-11439
▁incomp	-11440
▁genocide	-11441
/16	-11442
我们在	-11443
疫苗	-11444
▁disseminate	-11445
depend	-11446
▁Coll	-11447
▁sensitive	-11448
该方案	-11449
▁tolerance	-11450
捐助国	-11451
▁confirm	-11452
涉及到	-11453
assive	-11454
常驻联合国代表团	-11455
▁absolute	-11456
SB	-11457
▁Gen	-11458
▁harmful	-11459
引起的	-11460
▁stresses	-11461
布基	-11462
▁8,	-11463
▁以下	-11464
法索	-11465
做出了	-11466
▁department	-11467
都必须	-11468
响应	-11469
酋长	-11470
▁invite	-11471
sk	-11472
等问题	-11473
制定的	-11474
versities	-11475
▁Emergency	-11476
7%	-11477
得不到	-11478
▁91.	-11479
cribed	-11480
成本效益	-11481
▁pursued	-11482
los	-11483
还需要	-11484
▁crop	-11485
▁unac	-11486
missibility	-11487
▁Cust	-11488
▁violent	-11489
▁organizing	-11490
革命	-11491
kind	-11492
91	-11493
认证	-11494
▁reductions	-11495
▁cooperative	-11496
-19	-11497
做到	-11498
ergies	-11499
寻求庇护	-11500
▁presents	-11501
退化	-11502
入境	-11503
冲突的	-11504
ceans	-11505
▁Dj	-11506
解决方案	-11507
援引	-11508
特朗	-11509
▁UNMIS	-11510
▁hospital	-11511
▁那	-11512
▁Transnational	-11513
东耶路撒冷	-11514
着重指出	-11515
签署了	-11516
ulates	-11517
▁Provisional	-11518
不要	-11519
American	-11520
▁incident	-11521
(2001)	-11522
▁danger	-11523
▁separation	-11524
发动	-11525
感兴趣	-11526
▁Abd	-11527
回收	-11528
▁他还	-11529
sign	-11530
/2001	-11531
matic	-11532
▁uniform	-11533
▁juvenile	-11534
EPAD	-11535
▁Cameroon	-11536
小额	-11537
▁提供	-11538
▁suggestions	-11539
分歧	-11540
诉诸	-11541
ray	-11542
▁Combat	-11543
▁logistical	-11544
usp	-11545
有一	-11546
分析和	-11547
▁Hungary	-11548
▁devices	-11549
▁judgement	-11550
分配给	-11551
与和平	-11552
▁marked	-11553
▁decides	-11554
▁package	-11555
▁Consequently	-11556
的答复	-11557
▁保护	-11558
▁hal	-11559
决策者	-11560
▁mobile	-11561
▁thorough	-11562
▁applies	-11563
做了	-11564
▁heavy	-11565
秘书长特别代表	-11566
▁regimes	-11567
▁thereto	-11568
商务	-11569
orm	-11570
▁ign	-11571
第一个	-11572
2009)	-11573
▁Facility	-11574
核实	-11575
▁greatest	-11576
mosp	-11577
cepts	-11578
▁interpre	-11579
▁summit	-11580
直至	-11581
▁message	-11582
atal	-11583
▁supervision	-11584
2008-2009	-11585
的进程	-11586
福祉	-11587
顺利	-11588
▁Alliance	-11589
▁frequently	-11590
forcing	-11591
方面取得的进展	-11592
▁Business	-11593
ulf	-11594
▁excessive	-11595
▁mothers	-11596
▁objects	-11597
▁可以	-11598
小企业	-11599
rating	-11600
结论性意见	-11601
▁compulsory	-11602
物体	-11603
条和	-11604
ructuring	-11605
▁offset	-11606
殖民化	-11607
的最后	-11608
ario	-11609
经验教训	-11610
acing	-11611
摩尔多瓦	-11612
方面取得了	-11613
下述	-11614
申明	-11615
常会	-11616
的有	-11617
就必须	-11618
问题国际法庭	-11619
▁spending	-11620
之内	-11621
政权	-11622
▁MDGs	-11623
laundering	-11624
▁Durban	-11625
▁claimant	-11626
征求	-11627
教授	-11628
vency	-11629
所载的	-11630
是通过	-11631
▁standing	-11632
▁accordingly	-11633
前景	-11634
▁专家组	-11635
▁Tod	-11636
▁SBSTA	-11637
▁notification	-11638
▁signing	-11639
▁pregnancy	-11640
和工作	-11641
案件中	-11642
赞比亚	-11643
提交的报告	-11644
▁drawing	-11645
▁counselling	-11646
用水	-11647
▁Domin	-11648
▁convening	-11649
▁Mauritius	-11650
▁联合	-11651
▁认识到	-11652
和各	-11653
▁Urges	-11654
▁moti	-11655
▁Lastly	-11656
打击跨国有组织犯罪	-11657
CE	-11658
轨道	-11659
▁generated	-11660
的综合	-11661
▁ending	-11662
▁beneficiaries	-11663
用作	-11664
▁的决议草案	-11665
▁immigration	-11666
约束力的	-11667
▁Bulg	-11668
此项	-11669
▁underlying	-11670
部委	-11671
加沙地带	-11672
▁gives	-11673
▁kill	-11674
的领域	-11675
▁output	-11676
对这一	-11677
▁Adoption	-11678
▁composed	-11679
治安	-11680
▁开发署	-11681
犯罪行为	-11682
atible	-11683
对策	-11684
和资源	-11685
lining	-11686
▁adhe	-11687
最不发达国家的	-11688
table	-11689
minent	-11690
elling	-11691
▁continent	-11692
posed	-11693
▁army	-11694
▁master	-11695
udgeting	-11696
▁Pap	-11697
妇女参与	-11698
▁rising	-11699
▁Industrial	-11700
▁Bec	-11701
▁List	-11702
▁dimension	-11703
真相	-11704
大会的	-11705
▁respected	-11706
多少	-11707
后勤基地	-11708
oured	-11709
▁targeting	-11710
▁社会	-11711
港口	-11712
▁instit	-11713
▁calling	-11714
判例	-11715
ude	-11716
一方	-11717
书记官	-11718
听取了	-11719
吉尔吉斯	-11720
问题世界首脑会议	-11721
▁elaboration	-11722
▁inside	-11723
▁2004-2005	-11724
咨询小组	-11725
增进和保护	-11726
▁Senior	-11727
▁TO	-11728
并提供	-11729
的数量	-11730
▁talks	-11731
▁加拿大	-11732
发生在	-11733
该组织	-11734
▁Cypri	-11735
保密	-11736
房地	-11737
也可以	-11738
▁accelerate	-11739
进行调查	-11740
▁macroeconomic	-11741
▁voting	-11742
▁deeply	-11743
ceptions	-11744
联塞	-11745
tian	-11746
▁Jam	-11747
▁village	-11748
▁expulsion	-11749
alition	-11750
▁encoun	-11751
▁programs	-11752
不久	-11753
也将	-11754
▁(1);	-11755
ounded	-11756
▁monetary	-11757
▁Sex	-11758
补助金	-11759
成果文件	-11760
▁undersc	-11761
▁Settlements	-11762
entieth	-11763
▁Rad	-11764
▁deemed	-11765
▁precise	-11766
特朗普	-11767
本届会议	-11768
▁replaced	-11769
人或	-11770
▁Spec	-11771
赠款	-11772
▁Takes	-11773
zing	-11774
▁prosper	-11775
2010-2011	-11776
批款	-11777
并根据	-11778
▁collected	-11779
纳米	-11780
ago	-11781
包容性	-11782
irates	-11783
3(	-11784
▁controlled	-11785
▁Jama	-11786
塔吉	-11787
▁97.	-11788
所提供的	-11789
的一个重要	-11790
而非	-11791
剩余	-11792
犹太	-11793
▁已经	-11794
和家庭	-11795
▁Interior	-11796
无害	-11797
纳法索	-11798
▁Rule	-11799
▁interactive	-11800
▁Macedonia	-11801
IU	-11802
▁accommodation	-11803
▁television	-11804
长的	-11805
▁Trump	-11806
面积	-11807
▁ele	-11808
▁bill	-11809
▁Ensure	-11810
▁parliamentary	-11811
动物	-11812
旅游业	-11813
▁epid	-11814
▁adolescents	-11815
▁Lithu	-11816
职类	-11817
裂变	-11818
pir	-11819
▁enrol	-11820
以及联合国	-11821
已成为	-11822
大会主席	-11823
▁Po	-11824
▁squ	-11825
核武器国家	-11826
▁immun	-11827
将来	-11828
▁eligible	-11829
这种情况下	-11830
▁dismis	-11831
司法部	-11832
布基纳法索	-11833
该法	-11834
▁divid	-11835
示威	-11836
经共体	-11837
多米尼	-11838
▁95.	-11839
iving	-11840
▁96.	-11841
▁fulfilment	-11842
iences	-11843
并强调	-11844
种种	-11845
自愿捐款	-11846
的能力建设	-11847
▁Freedom	-11848
▁Informal	-11849
大型	-11850
alk	-11851
▁prejudice	-11852
▁entrust	-11853
INF	-11854
kina	-11855
▁accred	-11856
▁Di	-11857
还没有	-11858
olvency	-11859
十二	-11860
实施了	-11861
▁City	-11862
▁isol	-11863
▁Narco	-11864
GB	-11865
月底	-11866
爆炸物	-11867
▁ECO	-11868
在与	-11869
缩小	-11870
allel	-11871
▁mutually	-11872
▁estimate	-11873
▁巴	-11874
以实现	-11875
▁supplementary	-11876
▁还有	-11877
▁reaffirm	-11878
▁prosecutors	-11879
四年	-11880
以及关于	-11881
uling	-11882
香港	-11883
▁CEDAW	-11884
▁register	-11885
▁foundation	-11886
成立了	-11887
国家元首	-11888
国际刑事法院	-11889
▁Mold	-11890
特设工作组	-11891
科技咨询机构	-11892
▁Country	-11893
▁meaningful	-11894
结核	-11895
彼此	-11896
结束时	-11897
重点放在	-11898
orrow	-11899
伯利	-11900
erb	-11901
1967	-11902
▁commence	-11903
林业	-11904
▁continuation	-11905
巴塞尔公约	-11906
动力	-11907
contin	-11908
盟约	-11909
▁secured	-11910
▁resolved	-11911
授予	-11912
海盗	-11913
▁breach	-11914
▁characteristics	-11915
▁attempts	-11916
EAN	-11917
政府间组织	-11918
▁moving	-11919
回返	-11920
▁instructions	-11921
陷入	-11922
called	-11923
▁moral	-11924
▁provinces	-11925
高级别会议	-11926
▁Mongol	-11927
orse	-11928
▁intim	-11929
丈夫	-11930
担忧	-11931
▁主要	-11932
▁98.	-11933
人事	-11934
/2011	-11935
▁thing	-11936
了其	-11937
购置	-11938
▁mention	-11939
▁dependent	-11940
raf	-11941
▁apparent	-11942
期间的	-11943
▁Faso	-11944
▁决议草案	-11945
之间的联系	-11946
▁Ocean	-11947
TR	-11948
监护	-11949
▁themes	-11950
比额	-11951
倾向	-11952
我要	-11953
exp	-11954
迫切需要	-11955
▁advances	-11956
穷人	-11957
管理系统	-11958
▁distingu	-11959
高效	-11960
▁accomplishments	-11961
马耳	-11962
▁Contribution	-11963
短缺	-11964
illance	-11965
▁methodologies	-11966
/56	-11967
防范	-11968
当事人	-11969
1980	-11970
▁应该	-11971
本组织的	-11972
▁invites	-11973
unitions	-11974
行为体	-11975
法和	-11976
lot	-11977
▁Capacity	-11978
提升	-11979
ott	-11980
▁VIII	-11981
▁被	-11982
▁150	-11983
执行的	-11984
发展战略	-11985
▁militi	-11986
2003)	-11987
发展中国家和	-11988
各代表团	-11989
▁thereon	-11990
不人道或有辱人格的待遇	-11991
国际会议	-11992
ique	-11993
摆脱	-11994
▁malaria	-11995
安装	-11996
▁Standards	-11997
▁Ban	-11998
提交人的	-11999
面向	-12000
对儿童	-12001
追究	-12002
▁Sector	-12003
▁transl	-12004
President	-12005
路线图	-12006
▁maxim	-12007
欺诈	-12008
汽车	-12009
/20	-12010
▁制定	-12011
国际文书	-12012
ariff	-12013
所有会员国	-12014
的计划	-12015
▁scen	-12016
的决议	-12017
人权问题	-12018
号一般性	-12019
▁destroyed	-12020
>)	-12021
▁Army	-12022
▁spent	-12023
开会	-12024
1989	-12025
▁dispar	-12026
▁Statistical	-12027
▁法院	-12028
或不	-12029
▁track	-12030
会谈	-12031
更广泛	-12032
概述了	-12033
该公约	-12034
她的	-12035
警察部队	-12036
▁formulate	-12037
▁dro	-12038
▁clarify	-12039
▁diverse	-12040
秘书长的	-12041
▁Upon	-12042
▁Arbit	-12043
▁correct	-12044
▁Officers	-12045
仇恨	-12046
坦桑尼亚联合	-12047
▁pregnant	-12048
西洋	-12049
▁上述	-12050
和公共	-12051
▁hospitals	-12052
▁Advance	-12053
▁在同	-12054
▁persistent	-12055
▁Goal	-12056
描述	-12057
的形式	-12058
▁replies	-12059
▁cas	-12060
▁ahead	-12061
联合国开发计划署	-12062
收容	-12063
斯德	-12064
▁$2	-12065
▁aspect	-12066
▁Slovenia	-12067
有了	-12068
的限制	-12069
非洲的	-12070
和平利用	-12071
▁inters	-12072
▁Today	-12073
▁underlined	-12074
▁lands	-12075
▁stead	-12076
境内流离失所者	-12077
▁restructuring	-12078
变成	-12079
条例和	-12080
▁shift	-12081
▁abst	-12082
▁degrading	-12083
▁conducive	-12084
oked	-12085
知识和	-12086
cutting	-12087
▁hostil	-12088
pped	-12089
uries	-12090
▁Uzbekistan	-12091
▁ON	-12092
双重	-12093
就业和	-12094
▁FDI	-12095
处的	-12096
▁Strip	-12097
草稿	-12098
/1997	-12099
▁MONUC	-12100
维和行动	-12101
1).	-12102
高等教育	-12103
并支持	-12104
强制性	-12105
▁doubt	-12106
日内瓦办事处	-12107
▁Invites	-12108
▁liberalization	-12109
抗议	-12110
无核武器区	-12111
▁ESCAP	-12112
构成部分	-12113
非法贩运	-12114
Agency	-12115
▁2014.	-12116
▁Syria	-12117
mitted	-12118
▁eliminating	-12119
力求	-12120
实物	-12121
犯下	-12122
▁injured	-12123
▁stronger	-12124
▁参加	-12125
▁trac	-12126
▁enshrined	-12127
的军事	-12128
妇发基金	-12129
达尔富尔混合行动	-12130
▁Nicaragua	-12131
▁vacc	-12132
这两	-12133
移徙者	-12134
▁translation	-12135
东盟	-12136
荒漠化公约	-12137
体面	-12138
全权	-12139
的性质	-12140
▁laid	-12141
移徙工人	-12142
▁council	-12143
▁observation	-12144
避孕	-12145
家庭成员	-12146
▁Corr	-12147
马其顿共和国	-12148
▁无	-12149
委员会对	-12150
的一般性	-12151
▁father	-12152
▁collect	-12153
/40	-12154
我们必须	-12155
▁bear	-12156
Aligned	-12157
积极的	-12158
东部	-12159
▁undermine	-12160
人权状况	-12161
未成年人	-12162
ompass	-12163
▁hosted	-12164
ox	-12165
薪酬	-12166
▁unlawful	-12167
/2012	-12168
坦桑尼亚联合共和国	-12169
▁disadvantaged	-12170
aba	-12171
▁依照	-12172
将与	-12173
ensive	-12174
▁mostly	-12175
修建	-12176
想要	-12177
ords	-12178
▁simpl	-12179
全球经济	-12180
并要求	-12181
讨论的	-12182
▁relates	-12183
3).	-12184
的立场	-12185
▁Taj	-12186
▁Only	-12187
▁stat	-12188
▁protocols	-12189
▁针对	-12190
日关于	-12191
进程中	-12192
uggling	-12193
裂变材料	-12194
itted	-12195
▁twentieth	-12196
也会	-12197
决定将	-12198
Pacific	-12199
▁Reform	-12200
Dec	-12201
获得的	-12202
▁greatly	-12203
贝宁	-12204
还包括	-12205
等待	-12206
增至	-12207
爆发	-12208
▁Dialogue	-12209
▁ordinary	-12210
▁ecosystems	-12211
▁Barb	-12212
▁trials	-12213
▁beings	-12214
▁最	-12215
的谈判	-12216
▁concepts	-12217
振兴	-12218
▁facto	-12219
▁universities	-12220
▁$3	-12221
从未	-12222
▁Corruption	-12223
拿马	-12224
有责任	-12225
等等	-12226
rets	-12227
▁Former	-12228
▁Logistics	-12229
工业发展	-12230
被捕	-12231
独立性	-12232
在纽约	-12233
减贫战略	-12234
▁brid	-12235
不扩散核武器条约	-12236
personnel	-12237
▁accurate	-12238
▁unions	-12239
▁Conduct	-12240
7(	-12241
OC	-12242
▁hom	-12243
秘书长的报告	-12244
▁competitiveness	-12245
社会和经济	-12246
▁Yet	-12247
▁transaction	-12248
An	-12249
分担	-12250
多名	-12251
居住在	-12252
▁ausp	-12253
▁provincial	-12254
一贯	-12255
/26	-12256
▁古巴	-12257
拉加	-12258
▁(2008	-12259
东欧	-12260
/17	-12261
/60/	-12262
▁Interim	-12263
安全部门	-12264
作物	-12265
计量	-12266
前提	-12267
▁lib	-12268
ultures	-12269
▁emphasize	-12270
一个国家	-12271
的严重	-12272
▁lot	-12273
▁diam	-12274
▁Participation	-12275
▁parallel	-12276
团长	-12277
残疾人的	-12278
▁millions	-12279
▁confisc	-12280
马耳他	-12281
▁Access	-12282
▁Moldova	-12283
▁insecurity	-12284
urb	-12285
▁Data	-12286
将这些	-12287
谈到	-12288
▁ratio	-12289
外空	-12290
驳回	-12291
ole	-12292
▁Fran	-12293
▁审议	-12294
多样化	-12295
▁species	-12296
批评	-12297
▁委员会欢迎	-12298
▁missing	-12299
第八	-12300
复苏	-12301
斯特	-12302
▁Tok	-12303
序言	-12304
经济委员会	-12305
所有的	-12306
▁Because	-12307
一国	-12308
burg	-12309
联黎部队	-12310
所示	-12311
▁敦促	-12312
▁Sahara	-12313
▁succeed	-12314
▁consistently	-12315
好的	-12316
幼儿	-12317
▁cruel	-12318
▁citizen	-12319
▁UNIFIL	-12320
金属	-12321
▁restricted	-12322
清理	-12323
▁教育	-12324
utory	-12325
▁tried	-12326
▁prospects	-12327
▁Basic	-12328
▁accompanied	-12329
刑法典	-12330
流行病	-12331
妇女权利	-12332
▁capability	-12333
▁我们还	-12334
船只	-12335
ala	-12336
▁印度	-12337
作出努力	-12338
筹集	-12339
获得了	-12340
regular	-12341
inational	-12342
▁预计	-12343
之一是	-12344
▁votes	-12345
之时	-12346
编写的	-12347
/54/	-12348
ster	-12349
▁entail	-12350
lin	-12351
资源和	-12352
▁ICC	-12353
)]	-12354
▁defer	-12355
▁closer	-12356
距离	-12357
采纳	-12358
▁objection	-12359
外联	-12360
▁Vic	-12361
法律框架	-12362
▁stockp	-12363
父亲	-12364
普通照会	-12365
委员会认为	-12366
审查会议	-12367
天然	-12368
缴款	-12369
自由和	-12370
▁learn	-12371
▁heritage	-12372
消息	-12373
和会议	-12374
系统地	-12375
脆弱性	-12376
▁reiterate	-12377
▁sentenced	-12378
gyz	-12379
▁WFP	-12380
▁eastern	-12381
议院	-12382
成果的	-12383
减少灾害	-12384
被拘留者	-12385
▁inhab	-12386
东南亚	-12387
▁hyd	-12388
紧急情况	-12389
▁capable	-12390
团伙	-12391
2006-2007	-12392
军火	-12393
库曼	-12394
/22	-12395
常设论坛	-12396
编列	-12397
rgyz	-12398
技术的	-12399
▁root	-12400
▁tables	-12401
复员和重返社会	-12402
▁univers	-12403
▁fer	-12404
▁consequence	-12405
大西洋	-12406
service	-12407
▁retain	-12408
▁nothing	-12409
信息的	-12410
难民和	-12411
▁sufficiently	-12412
▁更	-12413
ste	-12414
▁arise	-12415
▁whereby	-12416
▁Yugoslav	-12417
▁tribunal	-12418
▁cut	-12419
>(<	-12420
▁exists	-12421
▁Reports	-12422
-6	-12423
人道主义事务	-12424
izations	-12425
▁auspices	-12426
.11	-12427
voy	-12428
塔吉克斯坦	-12429
▁Prohibition	-12430
评估和	-12431
为联合国	-12432
▁Electoral	-12433
▁transmission	-12434
▁proceeds	-12435
▁penalties	-12436
置于	-12437
▁Bulgaria	-12438
反映出	-12439
非政府组织和	-12440
boundary	-12441
▁10,	-12442
▁1997.	-12443
ww	-12444
▁derived	-12445
des	-12446
核试验	-12447
oting	-12448
▁clarification	-12449
▁contacts	-12450
现场	-12451
通过一项	-12452
▁Pension	-12453
▁Workshop	-12454
发电	-12455
▁House	-12456
▁Tajik	-12457
EG	-12458
失败	-12459
津巴布	-12460
▁Ham	-12461
国家和国际	-12462
▁attitudes	-12463
财富	-12464
土库曼	-12465
▁sectoral	-12466
▁addresses	-12467
产业	-12468
▁program	-12469
▁subjects	-12470
散发	-12471
AF	-12472
年轻人	-12473
的状况	-12474
▁Saint	-12475
81	-12476
leb	-12477
继续进行	-12478
这些措施	-12479
▁encompass	-12480
▁participatory	-12481
▁quot	-12482
当然	-12483
区域合作	-12484
津巴布韦	-12485
anted	-12486
▁调查	-12487
国际标准	-12488
▁101.	-12489
健全	-12490
研所	-12491
▁kil	-12492
养恤基金	-12493
▁Imm	-12494
▁Cuban	-12495
参与了	-12496
lderly	-12497
▁eradicate	-12498
采取适当	-12499
▁Equal	-12500
▁convinced	-12501
▁Establishment	-12502
技术转让	-12503
▁Burkina	-12504
集会	-12505
首脑会议的	-12506
共同努力	-12507
开设	-12508
▁career	-12509
口译	-12510
120	-12511
的利益	-12512
▁Lithuania	-12513
其任务	-12514
中的作用	-12515
▁briefings	-12516
学会	-12517
充分执行	-12518
不稳定	-12519
,(	-12520
各项建议	-12521
会见	-12522
以确定	-12523
location	-12524
百万	-12525
▁expectations	-12526
▁73	-12527
开展的工作	-12528
学科	-12529
对付	-12530
发挥作用	-12531
▁samp	-12532
▁atmosp	-12533
它在	-12534
航天	-12535
同时考虑到	-12536
▁credibility	-12537
][	-12538
男孩	-12539
管理层	-12540
该国的	-12541
▁suffer	-12542
▁Jamaica	-12543
▁OECD	-12544
多项	-12545
▁revital	-12546
大幅度	-12547
竞争力	-12548
闭会期间	-12549
▁subsidies	-12550
刺激	-12551
和非政府组织	-12552
▁当然	-12553
面临的挑战	-12554
TION	-12555
▁vast	-12556
冰岛	-12557
ena	-12558
效率和	-12559
科行动	-12560
atories	-12561
▁verbale	-12562
grade	-12563
▁2010-2011	-12564
下一	-12565
原籍	-12566
▁Ba	-12567
liers	-12568
▁comparative	-12569
时至	-12570
XV	-12571
检组	-12572
爱沙	-12573
▁小组委员会	-12574
报酬	-12575
司法系统	-12576
没有得到	-12577
所作的努力	-12578
都会	-12579
www	-12580
elled	-12581
的特别	-12582
wing	-12583
▁Gree	-12584
▁prosecute	-12585
▁儿童基金会	-12586
▁emphasizes	-12587
毛额	-12588
证件	-12589
地方当局	-12590
▁orally	-12591
比额表	-12592
▁guard	-12593
▁killing	-12594
众多	-12595
▁大会第	-12596
▁necessity	-12597
设立了一个	-12598
▁pic	-12599
缔约国的	-12600
▁Between	-12601
▁villages	-12602
▁Consideration	-12603
公务员制度	-12604
▁suitable	-12605
各位	-12606
30,	-12607
▁texts	-12608
▁archit	-12609
cu	-12610
犯有	-12611
▁freely	-12612
▁quickly	-12613
▁Consultative	-12614
▁委员会在	-12615
▁Disaster	-12616
ceived	-12617
完成了	-12618
▁clin	-12619
▁conviction	-12620
年中	-12621
妇女署	-12622
有所增加	-12623
▁trying	-12624
拟议预算	-12625
▁adults	-12626
▁convicted	-12627
连接	-12628
uras	-12629
可再生能源	-12630
▁looked	-12631
气象	-12632
高质量	-12633
失业率	-12634
正式语文	-12635
▁deprivation	-12636
科索沃特派团	-12637
AU	-12638
分散	-12639
号法律	-12640
举办的	-12641
投资者	-12642
▁pool	-12643
单元	-12644
组建	-12645
网上	-12646
国内生产总值	-12647
感到关切的是	-12648
公职	-12649
支配	-12650
的变化	-12651
的增长	-12652
▁domin	-12653
比克	-12654
▁La	-12655
▁在过去	-12656
种族灭绝	-12657
机构在	-12658
召开的	-12659
组织了	-12660
阿拉伯联合	-12661
▁indicator	-12662
指挥官	-12663
实验室	-12664
▁comes	-12665
货币基金组织	-12666
采矿	-12667
是否有	-12668
▁resil	-12669
def	-12670
▁receipt	-12671
干涉	-12672
加强对	-12673
和中国	-12674
itary	-12675
代表团认为	-12676
▁Mongolia	-12677
▁exposure	-12678
4(	-12679
加工	-12680
1988	-12681
权威	-12682
ongovernmental	-12683
增多	-12684
▁convene	-12685
营养不良	-12686
监测和评价	-12687
▁Punishment	-12688
利率	-12689
的权利和	-12690
▁提高	-12691
通过其	-12692
▁lif	-12693
执行秘书	-12694
▁Efforts	-12695
▁residents	-12696
▁Advancement	-12697
▁Lim	-12698
月和	-12699
/19	-12700
年开始	-12701
▁mur	-12702
▁assumed	-12703
▁coordinator	-12704
制品	-12705
▁Area	-12706
rand	-12707
▁permitted	-12708
巴勒斯坦难民	-12709
▁entering	-12710
活动中	-12711
全体会议上	-12712
族塞	-12713
并将其	-12714
的援助	-12715
holm	-12716
▁surveillance	-12717
买卖	-12718
民警	-12719
▁他说	-12720
depth	-12721
▁credible	-12722
▁UNMIK	-12723
分段	-12724
展示	-12725
此外	-12726
由联合国	-12727
▁confron	-12728
▁electricity	-12729
▁policymakers	-12730
面临着	-12731
西撒哈拉	-12732
continued	-12733
改造	-12734
了一系列	-12735
▁mitigate	-12736
土著民族	-12737
拟议方案预算	-12738
宣言和行动纲领	-12739
环境和	-12740
▁marginalized	-12741
itious	-12742
▁integrating	-12743
▁workload	-12744
▁Participants	-12745
不当	-12746
消灭	-12747
社区的	-12748
2012-2013	-12749
重大的	-12750
▁澳大利亚	-12751
检察官办公室	-12752
建立的	-12753
表示赞赏	-12754
▁CR	-12755
▁shar	-12756
两级	-12757
naire	-12758
▁Kyrgyz	-12759
▁prevalence	-12760
▁establishes	-12761
尔摩	-12762
▁simple	-12763
笑声	-12764
wealth	-12765
▁granting	-12766
▁remun	-12767
爱沙尼亚	-12768
经合组织	-12769
这一目标	-12770
▁Americas	-12771
识别	-12772
▁Albania	-12773
▁Emphas	-12774
▁therein	-12775
惩治	-12776
在一个	-12777
国家安全	-12778
▁suspected	-12779
牵头	-12780
▁via	-12781
▁ocean	-12782
▁orientation	-12783
▁finalized	-12784
▁focuses	-12785
▁inad	-12786
▁consumer	-12787
船舶	-12788
莫桑	-12789
▁double	-12790
▁systematically	-12791
arts	-12792
▁Atomic	-12793
▁commodities	-12794
▁salaries	-12795
▁mediation	-12796
哥尔摩	-12797
关于联合国	-12798
aneous	-12799
▁eighth	-12800
莫桑比克	-12801
▁forthcoming	-12802
▁cance	-12803
ault	-12804
▁smo	-12805
战略框架	-12806
表示支持	-12807
▁investors	-12808
采取步骤	-12809
中间	-12810
取得成功	-12811
▁possession	-12812
xic	-12813
.1),	-12814
标志	-12815
灵活性	-12816
斯德哥尔摩	-12817
▁excell	-12818
卫生部	-12819
有力	-12820
由此	-12821
▁UNAMID	-12822
为在	-12823
的缔约方	-12824
▁vary	-12825
恰当	-12826
▁necessarily	-12827
andan	-12828
▁deploy	-12829
并呼吁	-12830
ographic	-12831
围绕	-12832
有效执行	-12833
rement	-12834
▁Greek	-12835
任用	-12836
统筹	-12837
ley	-12838
▁nongovernmental	-12839
秘书处的	-12840
▁hands	-12841
徒刑	-12842
▁budgeting	-12843
▁ceasefire	-12844
的必要性	-12845
代价	-12846
▁ask	-12847
▁rend	-12848
免疫	-12849
真正的	-12850
宗教或	-12851
▁enrolment	-12852
▁perspectives	-12853
2).	-12854
HA	-12855
选出	-12856
The	-12857
ented	-12858
▁Prior	-12859
▁联合国系统	-12860
▁signature	-12861
也可	-12862
拉脱	-12863
▁cultures	-12864
▁tangible	-12865
▁下列	-12866
和机构	-12867
▁recruited	-12868
筹备工作	-12869
▁synergies	-12870
内斯	-12871
的受害者	-12872
▁regarded	-12873
▁unan	-12874
和其他残忍	-12875
itative	-12876
▁realize	-12877
withstanding	-12878
imbab	-12879
▁Zambia	-12880
▁favourable	-12881
实例	-12882
部队派遣国	-12883
▁Niger	-12884
▁replacement	-12885
膨胀	-12886
经济合作	-12887
▁Emirates	-12888
▁greenhouse	-12889
激励	-12890
ordinary	-12891
模型	-12892
tory	-12893
▁99.	-12894
▁immunity	-12895
▁propose	-12896
uct	-12897
增加的	-12898
▁safeguard	-12899
和新	-12900
解决冲突	-12901
▁sentences	-12902
开采	-12903
/2013	-12904
▁repar	-12905
查阅	-12906
▁correspond	-12907
清洁发展	-12908
合适	-12909
▁assume	-12910
bourg	-12911
imbabwe	-12912
▁maternity	-12913
运营	-12914
(2)	-12915
拉脱维亚	-12916
▁husband	-12917
▁referendum	-12918
▁Reaffirming	-12919
awi	-12920
的第一	-12921
▁decreased	-12922
▁本组织	-12923
计划生育	-12924
植物	-12925
经费的筹措	-12926
法的	-12927
遗留	-12928
isp	-12929
▁$1.	-12930
4).	-12931
▁manufacturing	-12932
▁injury	-12933
当中	-12934
▁Monetary	-12935
Sah	-12936
联合国系统内	-12937
titioners	-12938
▁complementary	-12939
▁End	-12940
捕捞	-12941
较高	-12942
法外	-12943
土库曼斯坦	-12944
▁drought	-12945
▁Stockholm	-12946
DS	-12947
国务	-12948
wards	-12949
▁telecomm	-12950
▁div	-12951
法律文书	-12952
:<	-12953
首都	-12954
▁伊拉克	-12955
连贯	-12956
▁kid	-12957
正在进行	-12958
mental	-12959
ook	-12960
的一次	-12961
▁typ	-12962
▁实际上	-12963
领土完整	-12964
奴隶	-12965
阶层	-12966
itizens	-12967
▁extrem	-12968
事情	-12969
els	-12970
▁truth	-12971
一下	-12972
基本上	-12973
最为	-12974
▁obtaining	-12975
▁contractors	-12976
协调会	-12977
局面	-12978
见的	-12979
ouses	-12980
aution	-12981
fortunately	-12982
COM	-12983
lete	-12984
提供的资料	-12985
▁immig	-12986
▁quite	-12987
也应	-12988
机遇	-12989
外地办事处	-12990
▁Voluntary	-12991
▁disappearance	-12992
无效	-12993
▁一般	-12994
▁Ins	-12995
▁Biological	-12996
预算的	-12997
▁page	-12998
西方	-12999
联刚特派团	-13000
▁preserve	-13001
▁Rem	-13002
追加	-13003
除外	-13004
决议中	-13005
阵线	-13006
基金和方案	-13007
▁enemy	-13008
%;	-13009
▁teleph	-13010
▁emergencies	-13011
▁六	-13012
▁copy	-13013
▁Proper	-13014
▁weapon	-13015
的一致	-13016
提供咨询	-13017
▁logistics	-13018
▁吁请	-13019
▁engaging	-13020
%(	-13021
rup	-13022
脱离	-13023
▁clearance	-13024
打击跨国有组织犯罪公约	-13025
一家	-13026
▁willingness	-13027
▁Recommendations	-13028
协调厅	-13029
PRST	-13030
年第	-13031
ews	-13032
itive	-13033
urances	-13034
▁guided	-13035
是以	-13036
▁uph	-13037
country	-13038
中学	-13039
▁Char	-13040
、2	-13041
的手段	-13042
▁excluded	-13043
接受了	-13044
▁concerted	-13045
▁Envoy	-13046
▁exceptional	-13047
审议的	-13048
是由于	-13049
▁reaffirms	-13050
▁whereas	-13051
▁got	-13052
chol	-13053
提供了一个	-13054
▁enact	-13055
▁authorization	-13056
支持和	-13057
认捐	-13058
部长级会议	-13059
▁dollar	-13060
▁shelter	-13061
家园	-13062
环境的	-13063
▁highlight	-13064
▁Commonwealth	-13065
欧安	-13066
贯彻	-13067
提到了	-13068
蒙特利尔议定书	-13069
▁consists	-13070
表格	-13071
迹象	-13072
▁prevented	-13073
▁explicitly	-13074
未决	-13075
▁Habitat	-13076
▁possess	-13077
市场的	-13078
未来的	-13079
毕业	-13080
提供给	-13081
andon	-13082
▁porn	-13083
isting	-13084
赞助	-13085
tile	-13086
▁proved	-13087
oted	-13088
基本建设	-13089
▁ninth	-13090
▁formation	-13091
契约	-13092
必不可	-13093
▁wages	-13094
inations	-13095
理想	-13096
▁IMF	-13097
附加议定书	-13098
维持和平特派团	-13099
▁Resource	-13100
1:	-13101
部落	-13102
保护平民	-13103
圆桌会议	-13104
celand	-13105
▁thanks	-13106
stein	-13107
▁drop	-13108
entials	-13109
▁UNIFEM	-13110
▁enhancement	-13111
年起	-13112
ami	-13113
▁Tajikistan	-13114
▁girl	-13115
▁ministers	-13116
▁enabled	-13117
将本	-13118
或其	-13119
▁Every	-13120
▁SP	-13121
的程度	-13122
▁obvious	-13123
▁appropriation	-13124
章程	-13125
文件中	-13126
arming	-13127
▁involves	-13128
▁potentially	-13129
标题	-13130
▁elderly	-13131
▁Contracting	-13132
▁impose	-13133
都应	-13134
▁fish	-13135
▁remove	-13136
▁经济及社会理事会	-13137
▁Customs	-13138
世纪议程	-13139
性恋	-13140
而被	-13141
(2011	-13142
▁acquired	-13143
布鲁	-13144
国家在	-13145
的一份	-13146
▁102.	-13147
运送	-13148
发展权	-13149
▁Conf	-13150
▁corporations	-13151
appro	-13152
▁Facilit	-13153
▁completely	-13154
四次	-13155
案情	-13156
WAS	-13157
阿拉伯联合酋长	-13158
的审查	-13159
▁monitored	-13160
伦敦	-13161
▁Mond	-13162
区域和次区域	-13163
十分重要	-13164
▁Malta	-13165
▁District	-13166
▁多	-13167
的业务	-13168
▁COM	-13169
常驻代表团	-13170
富有	-13171
都拉斯	-13172
▁ODA	-13173
▁100.	-13174
▁Standard	-13175
▁类	-13176
通货	-13177
▁Friday	-13178
▁questionnaire	-13179
分钟	-13180
▁Branch	-13181
rich	-13182
▁headed	-13183
▁redress	-13184
▁consisting	-13185
友好	-13186
▁fill	-13187
adi	-13188
UNDP	-13189
▁block	-13190
▁benchmar	-13191
结余	-13192
英文	-13193
特别注意	-13194
见下文	-13195
under	-13196
▁Workers	-13197
▁Institutions	-13198
的财政	-13199
▁pand	-13200
不结盟运动	-13201
▁消除	-13202
ulum	-13203
关系的	-13204
案中	-13205
顾及	-13206
Pro	-13207
和更	-13208
kew	-13209
内部审计	-13210
▁69	-13211
▁benefited	-13212
不仅仅	-13213
▁exploration	-13214
洪都拉斯	-13215
▁Three	-13216
judicial	-13217
▁reimbursement	-13218
EE	-13219
修订的	-13220
▁gained	-13221
▁impossible	-13222
截止	-13223
和原则	-13224
▁uphold	-13225
overning	-13226
▁analyse	-13227
在某些	-13228
代理主席	-13229
政府官员	-13230
▁durable	-13231
他人	-13232
本人	-13233
▁scienti	-13234
奠定	-13235
第四次	-13236
kewise	-13237
▁Prov	-13238
尔德	-13239
纳米比亚	-13240
▁另一方面	-13241
满意地注意到	-13242
适用的	-13243
▁administering	-13244
abin	-13245
▁Articles	-13246
欣见	-13247
▁delayed	-13248
▁Recommendation	-13249
aling	-13250
▁NEPAD	-13251
辐射	-13252
▁Relief	-13253
村庄	-13254
遏制	-13255
某个	-13256
▁Libya	-13257
▁choose	-13258
atch	-13259
cess	-13260
zamb	-13261
国防军	-13262
▁imperative	-13263
委托	-13264
易受	-13265
法典	-13266
和虐待	-13267
▁consolidate	-13268
秘密	-13269
义务的	-13270
核能	-13271
rais	-13272
提供一个	-13273
▁Volunteers	-13274
为荷	-13275
但不	-13276
▁Don	-13277
国家机构	-13278
名成员	-13279
民用	-13280
/53/	-13281
vile	-13282
减免	-13283
适足	-13284
合理的	-13285
自治领土	-13286
不人道或有辱人格的待遇或处罚	-13287
森堡	-13288
/69	-13289
提高了	-13290
▁Judge	-13291
堕胎	-13292
第三方	-13293
调查结果	-13294
问题世界	-13295
▁normative	-13296
▁livelihoods	-13297
疑问	-13298
中心和	-13299
▁coerc	-13300
准备金	-13301
蒙特雷	-13302
sibly	-13303
inated	-13304
represent	-13305
的分析	-13306
ountain	-13307
应收	-13308
▁contracting	-13309
gently	-13310
▁Conflict	-13311
▁Welcoming	-13312
利润	-13313
预防性	-13314
所有这些	-13315
员工	-13316
等方面	-13317
必不可少	-13318
unteer	-13319
umbered	-13320
▁suggests	-13321
▁USD	-13322
多米尼加	-13323
▁perhaps	-13324
▁exchanges	-13325
在对	-13326
卢森堡	-13327
▁title	-13328
ahiri	-13329
国家办事处	-13330
▁Against	-13331
earing	-13332
▁workplace	-13333
▁2012-2013	-13334
的数额	-13335
执行委员会	-13336
▁tackle	-13337
次数	-13338
▁CT	-13339
合法性	-13340
非正规	-13341
▁bomb	-13342
alysis	-13343
▁indicating	-13344
article	-13345
▁surround	-13346
▁preparedness	-13347
岁的	-13348
缓慢	-13349
时的	-13350
▁Kar	-13351
一半	-13352
▁Post	-13353
▁即使	-13354
▁prem	-13355
▁Survey	-13356
所采取的	-13357
▁statute	-13358
波动	-13359
ention	-13360
吉尔吉斯斯坦	-13361
▁thereof	-13362
▁disclosure	-13363
overed	-13364
▁meant	-13365
下去	-13366
▁generations	-13367
gue	-13368
整合	-13369
imp	-13370
▁prop	-13371
巴拿马	-13372
▁waters	-13373
▁presentations	-13374
Sub	-13375
的长期	-13376
索特派团	-13377
▁sixtieth	-13378
斯科	-13379
和平协定	-13380
lantic	-13381
签证	-13382
▁无论	-13383
很大程度上	-13384
▁endorse	-13385
▁assurances	-13386
inal	-13387
▁firearms	-13388
▁initiate	-13389
▁servicing	-13390
▁Prosecution	-13391
青年人	-13392
▁Bill	-13393
▁momentum	-13394
医学	-13395
本区域	-13396
的概念	-13397
▁merely	-13398
▁abandon	-13399
▁assembly	-13400
划界	-13401
▁accounted	-13402
▁具体	-13403
弃权	-13404
羁押	-13405
节省	-13406
政府对	-13407
的现象	-13408
还必须	-13409
和宗教	-13410
和支助	-13411
▁comparison	-13412
与各	-13413
▁unity	-13414
▁drinking	-13415
已于	-13416
空气	-13417
6).	-13418
决议和	-13419
框架公约	-13420
▁approve	-13421
▁dynamic	-13422
▁candidate	-13423
协助下	-13424
的公共	-13425
吸毒	-13426
房屋	-13427
▁healthy	-13428
20.	-13429
农村妇女	-13430
▁celeb	-13431
▁Zimbabwe	-13432
思考	-13433
terrey	-13434
▁Monday	-13435
的许多	-13436
提供便利	-13437
的联系	-13438
▁Era	-13439
▁submits	-13440
▁vend	-13441
▁massive	-13442
▁entrusted	-13443
持久性	-13444
▁Requ	-13445
操守	-13446
▁Slovakia	-13447
警卫	-13448
▁要求	-13449
▁Iceland	-13450
2004-2005	-13451
列支	-13452
的证据	-13453
达成协议	-13454
▁Claim	-13455
减缓	-13456
指令	-13457
▁Hague	-13458
▁struggle	-13459
订约	-13460
▁Amend	-13461
塔利	-13462
1373	-13463
ashing	-13464
▁fissile	-13465
▁affordable	-13466
▁affirm	-13467
▁Prevent	-13468
名称	-13469
斐济	-13470
直升	-13471
▁substantially	-13472
tar	-13473
▁IF	-13474
不存在	-13475
▁104.	-13476
信息通报	-13477
▁acknowledge	-13478
严重违反	-13479
▁user	-13480
战斗人员	-13481
▁anim	-13482
年间	-13483
▁foot	-13484
周围	-13485
追踪	-13486
的投资	-13487
▁earth	-13488
▁threatened	-13489
这些活动	-13490
所提	-13491
▁1,000	-13492
地中	-13493
警官	-13494
▁banking	-13495
▁inhabit	-13496
最大限度	-13497
ahiriya	-13498
▁rapporteur	-13499
和报告	-13500
联邦政府	-13501
▁chief	-13502
真实	-13503
的人的	-13504
▁square	-13505
herent	-13506
▁slight	-13507
▁closing	-13508
▁art	-13509
▁监督厅	-13510
事态发展	-13511
了这一	-13512
▁Moh	-13513
▁103.	-13514
▁CC	-13515
istance	-13516
▁appeared	-13517
▁Jamahiriya	-13518
▁drafted	-13519
▁refused	-13520
自由化	-13521
权限	-13522
等领域	-13523
创业	-13524
的提议	-13525
▁UNOCI	-13526
清洁发展机制	-13527
措辞	-13528
▁postpon	-13529
▁remarks	-13530
▁certification	-13531
分为	-13532
在实现	-13533
检察长	-13534
▁elsewhere	-13535
▁merits	-13536
12)	-13537
vals	-13538
区域办事处	-13539
意外	-13540
毫不	-13541
▁Benin	-13542
▁announce	-13543
▁Monterrey	-13544
ann	-13545
▁blo	-13546
▁intimid	-13547
▁Regulation	-13548
主管当局	-13549
高级官员	-13550
▁minors	-13551
▁1373	-13552
▁Green	-13553
借此	-13554
招聘	-13555
的一系列	-13556
每周	-13557
委员会还	-13558
▁imports	-13559
▁inquiry	-13560
▁powerful	-13561
吉布	-13562
我谨	-13563
的总	-13564
以协助	-13565
tization	-13566
LAC	-13567
并建议	-13568
▁SME	-13569
这些建议	-13570
非常重要	-13571
要点	-13572
包括与	-13573
plus	-13574
▁sla	-13575
erated	-13576
Saharan	-13577
伤亡	-13578
出来	-13579
海牙	-13580
分列	-13581
▁12,	-13582
灭绝种族	-13583
factory	-13584
▁urgently	-13585
迫使	-13586
歧视性	-13587
▁coup	-13588
▁Violations	-13589
另有	-13590
逆转	-13591
isite	-13592
的各个	-13593
▁Center	-13594
▁上	-13595
庆祝	-13596
已经在	-13597
▁Sit	-13598
▁Arabic	-13599
▁incons	-13600
oss	-13601
▁heart	-13602
▁closure	-13603
主持下	-13604
号决议和	-13605
▁(2004)	-13606
▁looking	-13607
拟议的	-13608
类似的	-13609
▁aspir	-13610
患者	-13611
▁lawyer	-13612
▁viable	-13613
▁duplication	-13614
▁significance	-13615
或许	-13616
ino	-13617
iagn	-13618
▁town	-13619
▁constitu	-13620
▁university	-13621
动机	-13622
以满足	-13623
▁accessibility	-13624
谋杀	-13625
▁Panama	-13626
老挝	-13627
▁Before	-13628
▁occasions	-13629
孕妇	-13630
▁Somali	-13631
中亚	-13632
效应	-13633
既定	-13634
从而使	-13635
和多边	-13636
强有力的	-13637
▁intends	-13638
你的	-13639
方法和	-13640
检查组	-13641
人口与发展	-13642
和私营部门	-13643
▁unanim	-13644
▁summits	-13645
▁retained	-13646
%),	-13647
aires	-13648
▁minutes	-13649
▁Mozamb	-13650
▁restoration	-13651
然而	-13652
▁operative	-13653
▁研究	-13654
带来了	-13655
可以通过	-13656
TD	-13657
评注	-13658
次全体会议	-13659
▁enacted	-13660
维尔	-13661
在其第	-13662
第十二	-13663
▁fostering	-13664
▁stipulated	-13665
续会	-13666
▁transformation	-13667
(1);	-13668
point	-13669
▁Property	-13670
报告了	-13671
▁updating	-13672
敦士	-13673
美国的	-13674
列支敦士	-13675
▁wind	-13676
▁prevailing	-13677
约有	-13678
▁regrets	-13679
利息	-13680
继续审议	-13681
列支敦士登	-13682
警察局	-13683
▁endeavour	-13684
为基础的	-13685
▁1988	-13686
uba	-13687
会议期间	-13688
所造成的	-13689
▁106.	-13690
acting	-13691
▁desire	-13692
的人力	-13693
数据收集	-13694
▁handling	-13695
联利	-13696
这项工作	-13697
向大会第六十	-13698
▁politic	-13699
是有	-13700
检测	-13701
并指出	-13702
bre	-13703
日生效	-13704
▁convey	-13705
为促进	-13706
▁Ali	-13707
寿命	-13708
所占	-13709
卫生设施	-13710
延迟	-13711
的指控	-13712
▁irre	-13713
▁volati	-13714
极大	-13715
ethe	-13716
▁Studies	-13717
▁poorest	-13718
▁features	-13719
250	-13720
iencies	-13721
构想	-13722
auc	-13723
债权人	-13724
omet	-13725
经济共同体	-13726
▁complexity	-13727
术语	-13728
endar	-13729
▁Eradic	-13730
地面	-13731
将通过	-13732
CEDAW	-13733
▁census	-13734
▁easy	-13735
▁strictly	-13736
所谓的	-13737
▁opinions	-13738
LE	-13739
人群	-13740
while	-13741
▁Hond	-13742
/27	-13743
具有法律	-13744
▁UNMIL	-13745
▁Provid	-13746
人权事务委员会	-13747
▁Command	-13748
▁realized	-13749
应以	-13750
▁gene	-13751
udence	-13752
在不	-13753
竞赛	-13754
xem	-13755
塔利班	-13756
通货膨胀	-13757
重组	-13758
▁saw	-13759
▁book	-13760
▁appointments	-13761
并以	-13762
留在	-13763
▁capture	-13764
博士	-13765
▁1989	-13766
人均	-13767
屠杀	-13768
表示感谢	-13769
▁chaired	-13770
,2005	-13771
反腐败公约	-13772
▁Sexual	-13773
下一次	-13774
反对派	-13775
▁desi	-13776
▁tons	-13777
和与	-13778
ests	-13779
国民议会	-13780
▁culti	-13781
▁seats	-13782
编辑	-13783
会员国的	-13784
玻利瓦尔	-13785
▁大多数	-13786
的人道主义	-13787
▁在同次会议上	-13788
会期	-13789
GDP	-13790
地方政府	-13791
经济和社会事务部	-13792
▁impartial	-13793
▁engineering	-13794
残疾儿童	-13795
特别关注	-13796
▁remuneration	-13797
▁narrow	-13798
▁特派团	-13799
▁told	-13800
▁prohibit	-13801
▁随后	-13802
费用的	-13803
▁2015.	-13804
和占领	-13805
承包商	-13806
▁Consensus	-13807
前南斯拉夫的	-13808
compliance	-13809
国会	-13810
送交	-13811
和民间社会	-13812
住所	-13813
撤回	-13814
鱼类	-13815
在大会	-13816
的支持下	-13817
常设委员会	-13818
▁disaggregated	-13819
▁formally	-13820
布雷	-13821
ousing	-13822
工作场所	-13823
acerb	-13824
▁municipalities	-13825
、<	-13826
的质量	-13827
▁Responsible	-13828
太阳	-13829
的趋势	-13830
签署的	-13831
▁Base	-13832
▁rich	-13833
seas	-13834
orney	-13835
西非经共体	-13836
率和	-13837
危害人类	-13838
▁105.	-13839
权力机构	-13840
而采取的	-13841
▁combination	-13842
(2007	-13843
▁dates	-13844
iban	-13845
▁screen	-13846
▁Legislative	-13847
-16	-13848
oliv	-13849
▁urgency	-13850
▁110.	-13851
印刷	-13852
吸收	-13853
▁ut	-13854
▁seized	-13855
撤出	-13856
dam	-13857
行为守则	-13858
基督	-13859
重叠	-13860
▁outline	-13861
,3	-13862
很快	-13863
▁exacerb	-13864
电脑	-13865
性问题	-13866
▁curricula	-13867
风险管理	-13868
▁Forests	-13869
mad	-13870
▁carefully	-13871
土壤	-13872
000.	-13873
贝尔	-13874
-4,	-13875
che	-13876
esty	-13877
增强妇女	-13878
▁pain	-13879
▁Canad	-13880
▁pornography	-13881
准许	-13882
审讯	-13883
和平解决	-13884
阿拉伯利比亚	-13885
elfth	-13886
EB	-13887
▁比如	-13888
无国籍	-13889
▁leader	-13890
自主	-13891
法官和	-13892
▁vessels	-13893
冲击	-13894
▁declined	-13895
▁comprises	-13896
▁第五	-13897
xembourg	-13898
发送	-13899
不在	-13900
很高	-13901
fit	-13902
系统和	-13903
预算和	-13904
▁removed	-13905
▁tensions	-13906
妻子	-13907
▁正在	-13908
所产生的	-13909
所指	-13910
主流化	-13911
核准的	-13912
lled	-13913
▁acquire	-13914
▁ensured	-13915
▁全国	-13916
地中海	-13917
我们认为	-13918
▁1994,	-13919
▁Namib	-13920
▁severely	-13921
▁collaborative	-13922
▁Gol	-13923
▁branch	-13924
▁External	-13925
▁maintains	-13926
▁(4	-13927
▁hostilities	-13928
吉布提	-13929
▁broadcast	-13930
▁interdepend	-13931
各缔约方	-13932
▁executions	-13933
惩处	-13934
▁shipp	-13935
世界卫生组织	-13936
所有权	-13937
▁speaker	-13938
resh	-13939
ighten	-13940
执行情况报告	-13941
▁Opportun	-13942
无线	-13943
统治	-13944
▁negotiated	-13945
▁frag	-13946
▁predictable	-13947
范畴	-13948
保护儿童	-13949
负面影响	-13950
after	-13951
▁ultimately	-13952
.9/	-13953
条规定的	-13954
▁capita	-13955
引发	-13956
▁deadline	-13957
测量	-13958
各国的	-13959
▁subsistence	-13960
行动者	-13961
▁connected	-13962
RES	-13963
文职人员	-13964
olivarian	-13965
可用	-13966
远远	-13967
▁inhabitants	-13968
MO	-13969
附件一缔约方	-13970
医务	-13971
any	-13972
ibou	-13973
▁politics	-13974
▁admissibility	-13975
rap	-13976
▁Sol	-13977
▁fal	-13978
FOR	-13979
的评估	-13980
trial	-13981
▁emission	-13982
▁pursuing	-13983
以南	-13984
East	-13985
区域组织	-13986
▁permits	-13987
措施和	-13988
laim	-13989
参与者	-13990
结束后	-13991
▁pose	-13992
▁uncon	-13993
▁Dominican	-13994
社会的	-13995
▁Hol	-13996
▁inherent	-13997
现代化	-13998
▁欧盟	-13999
特别顾问	-14000
▁Illicit	-14001
法律的	-14002
▁Kuwaiti	-14003
谋求	-14004
之际	-14005
缴纳	-14006
▁popular	-14007
▁Tribunals	-14008
▁的第	-14009
▁front	-14010
侵犯人权行为	-14011
▁delegates	-14012
名册	-14013
每日	-14014
▁代理主席	-14015
▁consistency	-14016
iny	-14017
▁depends	-14018
▁Mozambique	-14019
-2006	-14020
▁insolvency	-14021
贩卖人口	-14022
▁pace	-14023
▁Effective	-14024
hips	-14025
▁incumb	-14026
培训课程	-14027
▁人口基金	-14028
▁Introduc	-14029
▁analyses	-14030
含有	-14031
总计划	-14032
respec	-14033
▁unlike	-14034
▁channels	-14035
个人和	-14036
的最高	-14037
制定一项	-14038
一段	-14039
▁Rev	-14040
伊斯兰会议	-14041
▁Intell	-14042
▁pillars	-14043
isations	-14044
可信	-14045
dec	-14046
▁recall	-14047
对在	-14048
继续与	-14049
ells	-14050
▁Promoting	-14051
贫民	-14052
这么	-14053
▁hor	-14054
tenstein	-14055
的最大	-14056
▁Ber	-14057
▁emerged	-14058
一再	-14059
▁video	-14060
两年期方案预算	-14061
和消除	-14062
采用了	-14063
区域中心	-14064
作出的努力	-14065
▁Corpor	-14066
先进	-14067
▁characterized	-14068
/61/	-14069
▁discharge	-14070
结社	-14071
致使	-14072
▁Clo	-14073
助理秘书长	-14074
▁easily	-14075
10,	-14076
宣传活动	-14077
(2002	-14078
arious	-14079
etheless	-14080
▁send	-14081
▁Judicial	-14082
▁promptly	-14083
▁moved	-14084
新兴	-14085
各国在	-14086
▁(2004	-14087
▁yield	-14088
▁stereotypes	-14089
▁(3	-14090
预期成绩	-14091
本国的	-14092
执行计划	-14093
▁none	-14094
▁voice	-14095
▁answer	-14096
LB	-14097
先决	-14098
inct	-14099
UB	-14100
纳入主流	-14101
▁AMIS	-14102
▁employer	-14103
▁curriculum	-14104
▁compilation	-14105
▁Ord	-14106
▁neut	-14107
情况和	-14108
IX	-14109
发展基金	-14110
公共卫生	-14111
nesses	-14112
▁Continue	-14113
▁使	-14114
及文化	-14115
管理事	-14116
▁Lead	-14117
▁Taliban	-14118
▁Turkmen	-14119
echtenstein	-14120
常任	-14121
uer	-14122
部队和	-14123
rupt	-14124
usion	-14125
graphic	-14126
▁possibilities	-14127
市场准入	-14128
▁fell	-14129
▁sure	-14130
物种	-14131
六个月	-14132
就可以	-14133
提出的问题	-14134
▁(2011	-14135
能在	-14136
至第	-14137
担保权	-14138
的事实	-14139
其他职等	-14140
▁Latvia	-14141
六个	-14142
成人	-14143
▁toward	-14144
▁Bahrain	-14145
▁disciplinary	-14146
▁Bh	-14147
恐怖主义行为	-14148
下来	-14149
任务的	-14150
▁wall	-14151
▁inequalities	-14152
GE	-14153
提高对	-14154
▁dispro	-14155
合作社	-14156
part	-14157
▁pledges	-14158
和全球	-14159
有关各方	-14160
licop	-14161
▁85	-14162
裁军和	-14163
▁Minor	-14164
▁patients	-14165
法律规定	-14166
▁continuity	-14167
▁adapt	-14168
只有在	-14169
配备	-14170
▁foundations	-14171
▁termination	-14172
行动和	-14173
▁becomes	-14174
ira	-14175
wan	-14176
▁sil	-14177
代表发言	-14178
tiated	-14179
的价值	-14180
载列	-14181
20,	-14182
的事件	-14183
▁Tar	-14184
代表欧洲联盟	-14185
▁legitimacy	-14186
卡拉	-14187
▁Round	-14188
种类	-14189
在非洲	-14190
非正式磋商	-14191
▁offenders	-14192
左右	-14193
达成一致	-14194
▁Outcome	-14195
▁submitting	-14196
对抗	-14197
战争罪	-14198
放射性	-14199
▁Aid	-14200
委员会审议	-14201
▁redeployment	-14202
▁partly	-14203
▁contributes	-14204
实效	-14205
碎片	-14206
特许	-14207
▁11,	-14208
支助账户	-14209
▁Multilateral	-14210
强调必须	-14211
▁advancing	-14212
设定	-14213
▁Camp	-14214
▁refrain	-14215
内政部	-14216
▁Related	-14217
▁ham	-14218
▁helicop	-14219
民众国	-14220
▁72	-14221
在促进	-14222
先决条件	-14223
▁Final	-14224
▁CRC	-14225
▁neighb	-14226
以解决	-14227
▁UNITA	-14228
所有其他	-14229
特设委员会	-14230
▁producing	-14231
巴林	-14232
ondon	-14233
租赁	-14234
▁评估	-14235
known	-14236
▁ageing	-14237
▁promotes	-14238
外债	-14239
增长率	-14240
▁exclusively	-14241
▁儿童	-14242
,2008	-14243
污染物	-14244
▁nur	-14245
国家方案	-14246
Sh	-14247
关注的是	-14248
兄弟	-14249
在这个	-14250
科学家	-14251
gram	-14252
▁probably	-14253
同样的	-14254
▁unequ	-14255
▁前	-14256
8).	-14257
▁Im	-14258
▁presidency	-14259
华盛	-14260
这场	-14261
司司长	-14262
osi	-14263
华盛顿	-14264
的唯一	-14265
▁offering	-14266
多元	-14267
实务	-14268
施政	-14269
和生产	-14270
的行政	-14271
第十九	-14272
▁readiness	-14273
▁SA	-14274
▁munitions	-14275
内阁	-14276
有用	-14277
iro	-14278
几个月	-14279
世界贸易组织	-14280
时刻	-14281
rar	-14282
uda	-14283
▁我们希望	-14284
提供必要的	-14285
▁Medical	-14286
▁defining	-14287
分割	-14288
▁description	-14289
戈兰	-14290
签发	-14291
年年底	-14292
▁flood	-14293
▁contam	-14294
sal	-14295
使用武力	-14296
▁109.	-14297
▁environ	-14298
▁exposed	-14299
▁advisers	-14300
中部	-14301
工业化	-14302
标准化	-14303
大会议	-14304
abinet	-14305
▁1970	-14306
▁revenues	-14307
考试	-14308
一份报告	-14309
▁irregular	-14310
▁restore	-14311
▁Diversity	-14312
-15	-14313
的经费	-14314
所有相关	-14315
▁21,	-14316
安理会成员	-14317
巴勒斯坦被占领土	-14318
层次	-14319
ricts	-14320
▁Domestic	-14321
和大会	-14322
的生产	-14323
这种做法	-14324
▁commend	-14325
Af	-14326
证词	-14327
加入了	-14328
▁108.	-14329
委员会注意到	-14330
战略的	-14331
▁asc	-14332
选定	-14333
▁ER	-14334
▁Bri	-14335
仍未	-14336
▁Na	-14337
▁行政	-14338
道德操守	-14339
条例和细则	-14340
的结构	-14341
人类发展	-14342
▁Rest	-14343
▁MINUS	-14344
对外	-14345
的职能	-14346
超出	-14347
uber	-14348
▁slavery	-14349
▁definitions	-14350
约束力	-14351
任务规定	-14352
▁ozone	-14353
prudence	-14354
1373(2001)	-14355
▁suspended	-14356
IA	-14357
的某些	-14358
▁ASEAN	-14359
暴力侵害妇女行为	-14360
前南斯拉夫的马其顿共和国	-14361
Self	-14362
协调中心	-14363
Governing	-14364
提倡	-14365
DCP	-14366
▁Hel	-14367
ipline	-14368
弥补	-14369
zero	-14370
▁occupational	-14371
▁disproportion	-14372
当代	-14373
美国和	-14374
提供技术	-14375
▁firmly	-14376
▁guiding	-14377
▁相反	-14378
家长	-14379
款规定	-14380
的土地	-14381
▁causing	-14382
根除	-14383
的公约	-14384
ping	-14385
▁Welfare	-14386
毒品和犯罪问题办事处	-14387
接纳	-14388
身心	-14389
▁mem	-14390
关键作用	-14391
▁Order	-14392
▁accum	-14393
▁servants	-14394
▁encountered	-14395
▁formulating	-14396
分离	-14397
追求	-14398
▁UNCCD	-14399
▁index	-14400
nutrition	-14401
sensitive	-14402
有意义	-14403
经社理事会	-14404
▁registry	-14405
retion	-14406
▁Concerning	-14407
引入	-14408
自行	-14409
▁bott	-14410
▁Chris	-14411
▁diagn	-14412
补编	-14413
受到了	-14414
暴力和	-14415
是联合国	-14416
▁Chinas	-14417
▁Cypriot	-14418
▁feasible	-14419
的自由	-14420
▁suppliers	-14421
总是	-14422
案的	-14423
人们对	-14424
联检组	-14425
表现出	-14426
▁Cop	-14427
▁(2006	-14428
▁Kong	-14429
诊断	-14430
annes	-14431
ibouti	-14432
▁robust	-14433
▁aviation	-14434
的同	-14435
和传播	-14436
▁dom	-14437
实质性会议	-14438
▁schol	-14439
▁testim	-14440
▁administered	-14441
/55/	-14442
▁wanted	-14443
尼日尔	-14444
▁107.	-14445
▁heading	-14446
▁depending	-14447
▁incidence	-14448
奖励	-14449
细节	-14450
▁Mos	-14451
▁fru	-14452
,2006	-14453
摩尔多瓦共和国	-14454
▁fulfilling	-14455
与会	-14456
联科行动	-14457
▁特别委员会	-14458
▁upgrading	-14459
总共	-14460
▁houses	-14461
他说	-14462
▁serves	-14463
半年	-14464
分列的	-14465
▁diss	-14466
▁Hong	-14467
10.	-14468
已开始	-14469
ancer	-14470
应确保	-14471
隔离墙	-14472
国际劳工组织	-14473
▁Identi	-14474
▁Suppression	-14475
三项	-14476
电力	-14477
紧密	-14478
日之前	-14479
全面禁止	-14480
联合国志愿人员	-14481
▁proof	-14482
是为	-14483
.2/	-14484
并由	-14485
▁Congol	-14486
体罚	-14487
的部分	-14488
▁enorm	-14489
▁tariff	-14490
seen	-14491
▁referring	-14492
加斯	-14493
公正和	-14494
▁unre	-14495
▁prosperity	-14496
机器	-14497
▁brok	-14498
sectoral	-14499
▁holders	-14500
▁smuggling	-14501
iy	-14502
回到	-14503
的改革	-14504
万美元的	-14505
反馈	-14506
emi	-14507
▁法国	-14508
▁simult	-14509
iji	-14510
继续支持	-14511
▁Tues	-14512
▁survival	-14513
▁condemned	-14514
精简	-14515
管理事务	-14516
▁prove	-14517
▁awarded	-14518
▁frame	-14519
▁Luxembourg	-14520
亚的	-14521
司法机构	-14522
▁calendar	-14523
▁把	-14524
以帮助	-14525
的最低	-14526
▁Wed	-14527
▁Acad	-14528
▁launching	-14529
便于	-14530
应将	-14531
流入	-14532
▁herewith	-14533
▁stipulates	-14534
充满	-14535
▁Care	-14536
▁Thurs	-14537
核证	-14538
ERD	-14539
▁symp	-14540
▁cited	-14541
▁Honduras	-14542
▁Narcotic	-14543
▁开发计划署	-14544
就其	-14545
问题进行	-14546
工作人员和	-14547
▁在本	-14548
▁管理	-14549
扫盲	-14550
医疗服务	-14551
入侵和占领	-14552
▁(2001)	-14553
▁Victims	-14554
▁publicly	-14555
▁proactive	-14556
CB	-14557
大众	-14558
族塞人	-14559
ibid	-14560
▁呼吁	-14561
核材料	-14562
集中在	-14563
▁Prison	-14564
▁welcoming	-14565
和贸易	-14566
▁Tuesday	-14567
/64/	-14568
一切形式的	-14569
非自治领土	-14570
▁abortion	-14571
▁observance	-14572
在整个	-14573
人权维护	-14574
raisal	-14575
onomous	-14576
▁Serious	-14577
可能需要	-14578
侵权	-14579
约为	-14580
▁结果	-14581
对国际	-14582
开展活动	-14583
▁Thursday	-14584
▁interference	-14585
aka	-14586
enable	-14587
▁investigated	-14588
即便	-14589
▁JS	-14590
▁采取	-14591
▁bis	-14592
的地位	-14593
▁file	-14594
▁picture	-14595
▁tribunals	-14596
(2010	-14597
▁minimize	-14598
▁阿	-14599
承受	-14600
行为负责	-14601
和美国	-14602
的解释	-14603
个国家的	-14604
▁(2);	-14605
产生的影响	-14606
▁111.	-14607
▁repeatedly	-14608
该部	-14609
号公约	-14610
▁infant	-14611
▁escal	-14612
火箭	-14613
决定在	-14614
有关决议	-14615
ATIONS	-14616
▁adherence	-14617
▁difficulty	-14618
加强联合国	-14619
▁afore	-14620
▁highlights	-14621
,2	-14622
集束	-14623
▁Iv	-14624
▁hopes	-14625
▁contemporary	-14626
▁Contributions	-14627
的和	-14628
▁putting	-14629
▁Desertification	-14630
▁gr	-14631
▁taxes	-14632
报复	-14633
了这些	-14634
赤字	-14635
▁adult	-14636
develop	-14637
▁falling	-14638
小型企业	-14639
▁wife	-14640
▁Congolese	-14641
摧毁	-14642
清楚地	-14643
评论意见	-14644
嫌疑	-14645
▁76	-14646
刑事诉讼法	-14647
和可持续发展	-14648
▁commemor	-14649
将需要	-14650
▁aqu	-14651
▁smaller	-14652
政治事务	-14653
jective	-14654
居留	-14655
转向	-14656
▁abolition	-14657
对国家	-14658
▁Golan	-14659
▁mutil	-14660
▁killings	-14661
更高	-14662
在全国	-14663
arians	-14664
atural	-14665
erving	-14666
▁Namibia	-14667
▁existed	-14668
同时也	-14669
雇佣军	-14670
否认	-14671
▁增加	-14672
非国家	-14673
opol	-14674
spons	-14675
▁Parag	-14676
▁expressing	-14677
抵消	-14678
税务	-14679
atever	-14680
▁安全理事会第	-14681
▁instability	-14682
天的	-14683
met	-14684
▁Inf	-14685
▁难民署	-14686
提供更多	-14687
▁Culture	-14688
▁initially	-14689
孕产妇	-14690
▁Rural	-14691
▁sales	-14692
jection	-14693
▁murder	-14694
▁justified	-14695
▁telephone	-14696
发挥了	-14697
▁assurance	-14698
isive	-14699
▁Reaffirms	-14700
8(	-14701
▁instal	-14702
军用	-14703
▁$4	-14704
同上	-14705
均等	-14706
rog	-14707
▁专家	-14708
7).	-14709
一项关于	-14710
▁indisp	-14711
▁finally	-14712
▁revealed	-14713
不限成员名额工作组	-14714
救助	-14715
的未来	-14716
lets	-14717
公共行政	-14718
高级代表	-14719
▁harmonized	-14720
UM	-14721
离婚	-14722
主要的	-14723
reced	-14724
▁jurisprudence	-14725
收养	-14726
海洋法公约	-14727
联合国打击跨国有组织犯罪公约	-14728
欧安组织	-14729
▁选举	-14730
▁opposed	-14731
矛盾	-14732
工作人员薪金	-14733
故事	-14734
中小企业	-14735
▁Mine	-14736
▁justify	-14737
▁entirely	-14738
▁prosecutor	-14739
▁尽管如此	-14740
号法	-14741
名为	-14742
签字	-14743
全权证书	-14744
,2007	-14745
▁innoc	-14746
▁墨西哥	-14747
更有效地	-14748
苏特派团	-14749
▁Analysis	-14750
▁appreciated	-14751
50%	-14752
▁province	-14753
▁Liechtenstein	-14754
的工作方案	-14755
nesday	-14756
▁gratitude	-14757
负责任	-14758
发表了	-14759
数据的	-14760
nuclear	-14761
▁71	-14762
▁Ah	-14763
这些目标	-14764
▁Paraguay	-14765
中对	-14766
kok	-14767
licated	-14768
和国内	-14769
举行一次	-14770
recedented	-14771
▁Do	-14772
▁这就是	-14773
▁Take	-14774
▁benchmarks	-14775
中止	-14776
禁令	-14777
▁Appeal	-14778
bid	-14779
▁soil	-14780
▁makers	-14781
▁pandemic	-14782
PV	-14783
不超过	-14784
**	-14785
世卫	-14786
SCE	-14787
▁remit	-14788
▁deport	-14789
一级的	-14790
各成员国	-14791
▁London	-14792
▁debates	-14793
六条	-14794
▁Wednesday	-14795
▁未	-14796
将包括	-14797
▁asser	-14798
充分利用	-14799
请秘书处	-14800
进行评估	-14801
,2009	-14802
inder	-14803
归还	-14804
▁wors	-14805
▁tests	-14806
▁showing	-14807
▁undertook	-14808
工人的	-14809
外勤支助部	-14810
▁Hy	-14811
▁Reiter	-14812
捐赠	-14813
罗马规约	-14814
▁eigh	-14815
▁landmin	-14816
制订了	-14817
融入社会	-14818
联合国总部	-14819
国内流离失所者	-14820
▁assumption	-14821
▁组织	-14822
海洋环境	-14823
▁Disp	-14824
annesburg	-14825
▁utilized	-14826
(4	-14827
势头	-14828
以防止	-14829
我们对	-14830
▁goes	-14831
▁Estonia	-14832
和组织	-14833
阿拉伯国家联盟	-14834
公约草案	-14835
▁considerably	-14836
对话和	-14837
的财务	-14838
特别政治	-14839
▁boost	-14840
▁sevent	-14841
穷国	-14842
及农业	-14843
很大的	-14844
▁unprecedented	-14845
克里	-14846
提供指导	-14847
▁architecture	-14848
号和	-14849
萨摩	-14850
的犯罪	-14851
▁exact	-14852
▁(19	-14853
▁$5	-14854
约翰内斯	-14855
▁fertil	-14856
一场	-14857
养老	-14858
和性别	-14859
▁discretion	-14860
估算	-14861
分发为荷	-14862
▁Conferences	-14863
勘探	-14864
附录	-14865
格林	-14866
的一名	-14867
osen	-14868
签名	-14869
▁rely	-14870
▁speech	-14871
▁aforementioned	-14872
.1.	-14873
▁Once	-14874
演变	-14875
设有	-14876
▁(4)	-14877
职业培训	-14878
岗位	-14879
▁producers	-14880
▁retention	-14881
2%	-14882
氟氯	-14883
绳之	-14884
权力下放	-14885
这一进程	-14886
▁certainly	-14887
特性	-14888
转型期	-14889
未经表决	-14890
▁我们必须	-14891
阿拉伯联合酋长国	-14892
▁governed	-14893
▁thinking	-14894
▁Har	-14895
▁looks	-14896
市政	-14897
的适当	-14898
配额	-14899
▁Kim	-14900
和政府首脑	-14901
las	-14902
▁技术	-14903
联合国秘书长	-14904
▁friends	-14905
及有关	-14906
▁stands	-14907
迁移	-14908
巴拉圭	-14909
委员会第五十	-14910
次序	-14911
发展计划	-14912
▁FOR	-14913
▁obliged	-14914
人被	-14915
▁dual	-14916
▁inval	-14917
sives	-14918
约翰内斯堡	-14919
文盲	-14920
很重要	-14921
日开始	-14922
发展伙伴	-14923
▁night	-14924
甄选	-14925
过于	-14926
▁巴西	-14927
▁elaborate	-14928
地震	-14929
米尔	-14930
直升机	-14931
▁securing	-14932
在各	-14933
这份	-14934
▁rendered	-14935
▁resilience	-14936
可行性	-14937
个案	-14938
依法	-14939
届常会	-14940
▁incite	-14941
▁normally	-14942
▁suggestion	-14943
(3	-14944
一事	-14945
▁Question	-14946
邮件	-14947
▁historic	-14948
▁injuries	-14949
偏见	-14950
的因素	-14951
(1999)	-14952
最近的	-14953
过渡时期	-14954
持久性有机	-14955
▁oceans	-14956
▁Production	-14957
不安	-14958
撤离	-14959
▁districts	-14960
DB	-14961
▁于	-14962
恐吓	-14963
得出结论	-14964
有待	-14965
▁casual	-14966
▁critic	-14967
▁ratifying	-14968
延误	-14969
支助团	-14970
发展合作	-14971
▁Canadian	-14972
▁/	-14973
绝大多数	-14974
onn	-14975
▁实施	-14976
▁furn	-14977
▁absor	-14978
▁truly	-14979
ashington	-14980
当今	-14981
报告所述期间	-14982
▁argued	-14983
▁negl	-14984
▁Matters	-14985
▁atmosphere	-14986
它们在	-14987
▁Commun	-14988
▁evolution	-14989
、3	-14990
-14	-14991
IDB	-14992
▁74	-14993
till	-14994
prise	-14995
的不同	-14996
政府机构	-14997
▁huge	-14998
▁retirement	-14999
▁bad	-15000
日举行的	-15001
为何	-15002
▁会员国	-15003
▁表示	-15004
下一个	-15005
加紧努力	-15006
▁seiz	-15007
信心	-15008
▁resett	-15009
▁unaccept	-15010
塞族	-15011
的现有	-15012
转化	-15013
▁).	-15014
的罪行	-15015
发展集团	-15016
和技术援助	-15017
ranean	-15018
▁extraordinary	-15019
揽子	-15020
网站上	-15021
访问了	-15022
▁113.	-15023
分项目	-15024
▁son	-15025
▁Four	-15026
▁remind	-15027
三名	-15028
动荡	-15029
赤贫	-15030
并敦促	-15031
▁Are	-15032
社会服务	-15033
和维护	-15034
增设	-15035
log	-15036
▁协助	-15037
之下的	-15038
▁autonomy	-15039
▁contrast	-15040
▁classification	-15041
可能对	-15042
的看法	-15043
▁kinds	-15044
行径	-15045
▁Age	-15046
助长	-15047
并注意到	-15048
多斯	-15049
向所有	-15050
▁solely	-15051
▁advantages	-15052
▁limitation	-15053
▁DP	-15054
一份关于	-15055
ulted	-15056
欧洲委员会	-15057
种族主义和	-15058
绳之以法	-15059
▁allocate	-15060
▁Currently	-15061
找出	-15062
change	-15063
ticular	-15064
▁hundreds	-15065
▁references	-15066
▁unemployed	-15067
颁发	-15068
不包括	-15069
更好的	-15070
▁presum	-15071
玻利瓦尔共和国	-15072
但它	-15073
统计数字	-15074
cultural	-15075
▁combatants	-15076
▁ST	-15077
oud	-15078
▁Certain	-15079
170	-15080
和评估	-15081
得到加强	-15082
▁codes	-15083
▁denial	-15084
决定的	-15085
阐述了	-15086
fies	-15087
▁plants	-15088
▁employee	-15089
Other	-15090
产量	-15091
基因	-15092
指明	-15093
架构	-15094
分别为	-15095
▁academ	-15096
▁Djibouti	-15097
▁colonial	-15098
▁detection	-15099
增编	-15100
CMP	-15101
本公约	-15102
▁ethics	-15103
仍是	-15104
活跃	-15105
至今	-15106
获益	-15107
警告	-15108
预先	-15109
ark	-15110
▁95	-15111
三分之一	-15112
▁clients	-15113
以便为	-15114
想知道	-15115
▁toxic	-15116
和控制	-15117
assification	-15118
含义	-15119
的观点	-15120
▁awa	-15121
▁himself	-15122
忆及	-15123
和金融	-15124
天然气	-15125
批准的	-15126
罗姆人	-15127
科学及文化	-15128
平方	-15129
的精神	-15130
跨国公司	-15131
,2010	-15132
No	-15133
领域中	-15134
entions	-15135
▁devast	-15136
iterranean	-15137
的文化	-15138
▁evac	-15139
▁divor	-15140
▁globally	-15141
附上	-15142
180	-15143
▁pup	-15144
▁indication	-15145
▁若干	-15146
儿童保护	-15147
重大进展	-15148
affected	-15149
高兴地	-15150
司法和	-15151
文件和	-15152
海事组织	-15153
进度报告	-15154
粮食及农业	-15155
awa	-15156
的局势	-15157
▁zero	-15158
▁compromise	-15159
分裂	-15160
曼谷	-15161
Ban	-15162
▁新的	-15163
▁Turkmenistan	-15164
产假	-15165
athe	-15166
ming	-15167
发展方案	-15168
▁pursuit	-15169
alienable	-15170
▁epidemic	-15171
发行	-15172
电子商务	-15173
经费筹措	-15174
公私	-15175
证券	-15176
政府与	-15177
▁我国代表团	-15178
大气	-15179
工商	-15180
社会保护	-15181
ura	-15182
的和平	-15183
经验和	-15184
rian	-15185
▁resolving	-15186
代夫	-15187
各缔约国	-15188
结论和建议	-15189
联海	-15190
NGO	-15191
农业和	-15192
生殖器	-15193
而且还	-15194
人权教育	-15195
学金	-15196
在任何	-15197
▁2015,	-15198
▁tenure	-15199
▁baseline	-15200
▁elaborated	-15201
不予	-15202
惠益	-15203
的联合	-15204
▁attendance	-15205
应包括	-15206
▁),	-15207
▁(2001	-15208
▁fewer	-15209
马尔代夫	-15210
reshold	-15211
▁Maritime	-15212
▁environments	-15213
美洲国家	-15214
这将	-15215
iqu	-15216
body	-15217
妥善	-15218
▁利用	-15219
宗教或信仰	-15220
gments	-15221
▁databases	-15222
▁underscored	-15223
fe	-15224
瓦纳	-15225
▁phot	-15226
处以	-15227
提前	-15228
都没有	-15229
全球环境基金	-15230
▁religions	-15231
▁Australian	-15232
▁reinforcing	-15233
追回	-15234
月以来	-15235
▁outset	-15236
危及	-15237
加强其	-15238
扩大到	-15239
最重要的	-15240
研究中心	-15241
▁imbal	-15242
和方法	-15243
▁fellow	-15244
▁]	-15245
事宜	-15246
-3)	-15247
优先考虑	-15248
阿拉伯利比亚民众国	-15249
广大	-15250
本地	-15251
生境	-15252
asa	-15253
▁viewed	-15254
▁Coordinating	-15255
展望	-15256
cor	-15257
urit	-15258
▁另一个	-15259
▁各国政府	-15260
ga	-15261
无人	-15262
有效和	-15263
▁Gab	-15264
▁alien	-15265
萨摩亚	-15266
内陆发展中国家	-15267
力度	-15268
▁Tob	-15269
危害人类罪	-15270
怎样	-15271
▁(2005	-15272
▁extending	-15273
▁comparable	-15274
▁>	-15275
▁来	-15276
生物多样性公约	-15277
▁Without	-15278
▁Programmes	-15279
上涨	-15280
透明度和	-15281
,2004	-15282
▁Situation	-15283
环境中	-15284
的补充	-15285
使命	-15286
队伍	-15287
UNC	-15288
▁amounting	-15289
地下	-15290
用尽	-15291
应继续	-15292
法语	-15293
新闻中心	-15294
▁nevertheless	-15295
合作和	-15296
塔尼亚	-15297
号决定中	-15298
文章	-15299
支持下	-15300
mail	-15301
endum	-15302
麻醉药品	-15303
西亚经社会	-15304
▁sports	-15305
▁heavily	-15306
▁recover	-15307
▁budgeted	-15308
lers	-15309
建立信任措施	-15310
怎么	-15311
第五委员会	-15312
构成了	-15313
第一章	-15314
▁divided	-15315
见解	-15316
▁condemn	-15317
▁assignment	-15318
▁phr	-15319
▁Twenty	-15320
储蓄	-15321
导航	-15322
街头	-15323
▁并且	-15324
的规则	-15325
严重关切	-15326
区域和国家	-15327
▁UNDCP	-15328
残疾人权利公约	-15329
▁Delegations	-15330
抚养	-15331
考察	-15332
布鲁塞尔	-15333
▁Estim	-15334
采取后续行动	-15335
确切	-15336
▁Abu	-15337
▁114.	-15338
或是	-15339
▁tracking	-15340
海底	-15341
涉嫌	-15342
1.1	-15343
一次会议	-15344
一致认为	-15345
▁mist	-15346
▁demographic	-15347
▁corre	-15348
▁perceived	-15349
永远	-15350
地参与	-15351
▁发展中国家	-15352
殖民地	-15353
非索特派团	-15354
非洲发展新伙伴关系	-15355
▁economically	-15356
▁shif	-15357
▁ruling	-15358
▁arbitral	-15359
OV	-15360
▁nom	-15361
基本建设总计划	-15362
▁ordered	-15363
▁calculated	-15364
▁delivering	-15365
供水	-15366
ald	-15367
的增加	-15368
极端主义	-15369
国际和区域	-15370
▁street	-15371
▁regulated	-15372
所说	-15373
积累	-15374
▁rad	-15375
达成共识	-15376
警察和	-15377
FCCC	-15378
该缔约国	-15379
hi	-15380
▁该报告	-15381
▁Fiji	-15382
▁Korean	-15383
▁certificate	-15384
声音	-15385
名妇女	-15386
行为和	-15387
▁委员会认为	-15388
任何人	-15389
日举行	-15390
▁112.	-15391
▁fine	-15392
.19	-15393
拉加经委会	-15394
idents	-15395
▁sphere	-15396
▁recipient	-15397
FA	-15398
fund	-15399
▁hat	-15400
工作方法	-15401
▁115.	-15402
促进和保护人权	-15403
▁ensures	-15404
的收入	-15405
国际金融	-15406
财政期间	-15407
▁reading	-15408
▁mobilizing	-15409
▁destination	-15410
将该	-15411
▁OSCE	-15412
这一问题的	-15413
▁suspic	-15414
▁secretariats	-15415
投标	-15416
enh	-15417
redit	-15418
▁十	-15419
hat	-15420
6%	-15421
北约	-15422
▁Body	-15423
委内瑞拉玻利瓦尔共和国	-15424
现有资源	-15425
▁1993,	-15426
▁flight	-15427
庭长	-15428
的工具	-15429
▁Manual	-15430
不法	-15431
特区	-15432
2:	-15433
手续	-15434
推出	-15435
▁苏丹	-15436
▁copies	-15437
儿童权利委员会	-15438
▁argument	-15439
核准了	-15440
▁ECOWAS	-15441
建设和平委员会	-15442
▁partially	-15443
本着	-15444
代表在	-15445
初级商品	-15446
运载	-15447
产品的	-15448
或加入	-15449
统计局	-15450
秘书长在	-15451
▁adjusted	-15452
甲基	-15453
世界经济	-15454
(2005)	-15455
▁Administrator	-15456
提议的	-15457
teen	-15458
haust	-15459
inance	-15460
▁第四	-15461
各自的	-15462
有一些	-15463
▁jurisdictions	-15464
▁transboundary	-15465
城镇	-15466
▁俄罗斯联邦	-15467
仔细	-15468
▁Consider	-15469
▁supportive	-15470
严峻	-15471
刚刚	-15472
枪支	-15473
▁Up	-15474
▁regulate	-15475
▁president	-15476
▁documented	-15477
反映在	-15478
保障监督	-15479
成为一个	-15480
▁portf	-15481
▁proceeding	-15482
▁Dr	-15483
和参与	-15484
3%	-15485
边缘化	-15486
的会员国	-15487
这样一个	-15488
culos	-15489
▁appraisal	-15490
亲属	-15491
▁af	-15492
▁Washington	-15493
以供	-15494
演讲	-15495
的名义	-15496
使我们	-15497
委员会第十	-15498
▁exercises	-15499
▁allocations	-15500
ATO	-15501
按性别	-15502
儿童问题	-15503
▁exhaust	-15504
respective	-15505
病人	-15506
亚洲和	-15507
▁Elect	-15508
▁threshold	-15509
▁organisations	-15510
oub	-15511
解释说	-15512
TAH	-15513
▁Bu	-15514
和关于	-15515
▁(2007	-15516
▁Iranian	-15517
和监督	-15518
▁Rot	-15519
无障碍	-15520
aida	-15521
布罗	-15522
传染病	-15523
▁dism	-15524
斯德哥尔摩公约	-15525
申报	-15526
▁inadmissible	-15527
▁distinct	-15528
▁enormous	-15529
ching	-15530
state	-15531
MA	-15532
istrar	-15533
▁prescribed	-15534
抵抗	-15535
朋友	-15536
范围内的	-15537
联合国大会	-15538
▁separately	-15539
非法贸易	-15540
▁Natural	-15541
▁descent	-15542
▁Mu	-15543
▁annexes	-15544
▁privile	-15545
▁preservation	-15546
吸取	-15547
finance	-15548
▁eventually	-15549
▁10-	-15550
ussels	-15551
恶劣	-15552
理事国	-15553
军事观察员	-15554
应为	-15555
fri	-15556
而受到	-15557
法律制度	-15558
▁Housing	-15559
▁holistic	-15560
▁preceding	-15561
物理	-15562
马达	-15563
及相关	-15564
的总体	-15565
因为这些	-15566
向安全理事会	-15567
ensable	-15568
▁married	-15569
▁geographic	-15570
蔓延	-15571
/7/	-15572
▁roc	-15573
国际恐怖主义	-15574
驱动	-15575
10%	-15576
卫生保健	-15577
更广泛的	-15578
特遣队所属	-15579
avigation	-15580
前的	-15581
8%	-15582
和标准	-15583
保护人权	-15584
医疗保健	-15585
,2002	-15586
▁(2002	-15587
▁buyer	-15588
觉得	-15589
资源规划	-15590
▁rose	-15591
▁Communication	-15592
女生	-15593
策略	-15594
Ind	-15595
▁来自	-15596
▁eleventh	-15597
-23	-15598
▁目标	-15599
▁118.	-15600
▁Sign	-15601
▁Trial	-15602
▁investigating	-15603
▁Lao	-15604
▁委员会对	-15605
▁在这种情况下	-15606
依存	-15607
少女	-15608
核算	-15609
▁summarized	-15610
▁fired	-15611
▁genital	-15612
▁Citizens	-15613
我想	-15614
发言人	-15615
按照第	-15616
▁进一步	-15617
作了发言	-15618
▁morning	-15619
▁apportion	-15620
▁disparities	-15621
视频	-15622
具体措施	-15623
▁feedback	-15624
▁Bangkok	-15625
atization	-15626
两者	-15627
地图	-15628
举报	-15629
▁conversion	-15630
中国的	-15631
包括为	-15632
目的地	-15633
-2008	-15634
▁Committed	-15635
▁Johannesburg	-15636
是与	-15637
以避免	-15638
入学率	-15639
和活动	-15640
▁dil	-15641
forcement	-15642
要求在	-15643
▁lies	-15644
CH	-15645
军事和	-15646
▁allevi	-15647
▁Haitian	-15648
交给	-15649
概要	-15650
基金和	-15651
▁缔约方	-15652
▁临时	-15653
▁clause	-15654
小武器	-15655
▁rental	-15656
重新安置	-15657
▁duly	-15658
▁Explo	-15659
culosis	-15660
▁practitioners	-15661
/1,	-15662
问题高级别	-15663
▁owned	-15664
▁Genocide	-15665
▁evolving	-15666
两年期拟议方案预算	-15667
uberculosis	-15668
森林管理	-15669
▁affects	-15670
▁Response	-15671
▁fast	-15672
▁crimin	-15673
文化权利国际公约	-15674
▁suspension	-15675
vened	-15676
宣称	-15677
的指导	-15678
▁exercised	-15679
三次	-15680
▁2002-2003	-15681
但却	-15682
atial	-15683
外地特派团	-15684
▁ships	-15685
▁gradu	-15686
BC	-15687
姓名	-15688
私有	-15689
调集	-15690
歧视和	-15691
▁116.	-15692
▁tell	-15693
▁frequent	-15694
▁Bal	-15695
▁scientists	-15696
▁abstentions	-15697
▁feasibility	-15698
oney	-15699
▁Unity	-15700
▁unpaid	-15701
将被	-15702
署长	-15703
上诉法院	-15704
▁inher	-15705
伊斯兰会议组织	-15706
▁essentially	-15707
和责任	-15708
such	-15709
▁Election	-15710
▁Proposed	-15711
纲领	-15712
▁IX	-15713
感到关切	-15714
的目标是	-15715
6(	-15716
尝试	-15717
代表和	-15718
▁Togo	-15719
▁refusal	-15720
在线	-15721
▁19,	-15722
▁Urban	-15723
较为	-15724
降至	-15725
▁utmost	-15726
asts	-15727
/21	-15728
▁parame	-15729
▁phases	-15730
▁Kyrgyzstan	-15731
困境	-15732
/29	-15733
国家集团	-15734
民族和解	-15735
▁Racism	-15736
▁wording	-15737
斯先生	-15738
的存在	-15739
▁Major	-15740
Le	-15741
遗传	-15742
自决权	-15743
全民投票	-15744
▁sport	-15745
拘押	-15746
该计划	-15747
全面执行	-15748
▁audits	-15749
ectivity	-15750
网址	-15751
企业家	-15752
其关于	-15753
组织和非政府组织	-15754
茨瓦纳	-15755
第二届会议	-15756
▁chosen	-15757
▁indispensable	-15758
▁第十	-15759
/65/	-15760
儿童卖淫	-15761
进行协商	-15762
▁1949	-15763
▁联合王国	-15764
盘旋	-15765
▁Emp	-15766
.109/	-15767
anged	-15768
土著人民权利	-15769
▁Provide	-15770
DE	-15771
较少	-15772
援助的	-15773
▁Cour	-15774
国际社会的	-15775
消除对妇女歧视委员会	-15776
isi	-15777
事务处	-15778
wana	-15779
za	-15780
作用的	-15781
▁damages	-15782
奴役	-15783
分娩	-15784
境况	-15785
▁excess	-15786
▁Subsequently	-15787
▁extrajudicial	-15788
超越	-15789
确保其	-15790
▁ECA	-15791
聘用	-15792
的专家	-15793
olic	-15794
▁Rwandan	-15795
▁Accounting	-15796
互助	-15797
亚那	-15798
▁roads	-15799
▁cancer	-15800
▁equipp	-15801
▁使用	-15802
▁communicate	-15803
做好	-15804
相似	-15805
第二条	-15806
需要和	-15807
▁portion	-15808
▁promulg	-15809
▁attributed	-15810
ados	-15811
日举行的第	-15812
▁hatred	-15813
atric	-15814
▁intersessional	-15815
▁workforce	-15816
概况	-15817
编纂	-15818
安全与	-15819
的过程中	-15820
多米尼加共和国	-15821
▁appreciate	-15822
▁mutilation	-15823
▁talk	-15824
▁died	-15825
▁1996.	-15826
▁confidential	-15827
12,	-15828
vors	-15829
提供信息	-15830
的国际合作	-15831
▁trave	-15832
接种	-15833
薄弱	-15834
▁附件	-15835
上学	-15836
博茨瓦纳	-15837
科学技术	-15838
这是一个	-15839
▁aspirations	-15840
▁manifestations	-15841
足以	-15842
并重申	-15843
lles	-15844
▁optional	-15845
不对	-15846
的障碍	-15847
▁proposes	-15848
▁sponsored	-15849
▁translated	-15850
)/	-15851
等级	-15852
审计员	-15853
▁attract	-15854
和利用	-15855
修复	-15856
▁问题	-15857
执法人员	-15858
▁decree	-15859
尤为	-15860
▁CIS	-15861
▁Brussels	-15862
圭亚那	-15863
的提案	-15864
▁fresh	-15865
disciplinary	-15866
协调机制	-15867
▁委员会请	-15868
发援	-15869
汇款	-15870
罚款	-15871
赫勒	-15872
执行情况的	-15873
▁prohibits	-15874
采用的	-15875
▁在这些	-15876
sized	-15877
▁Capital	-15878
巴多斯	-15879
▁stood	-15880
▁challenging	-15881
▁监测	-15882
orian	-15883
▁write	-15884
国家行动计划	-15885
海岸	-15886
▁pet	-15887
为此目的	-15888
联合国和	-15889
的伙伴关系	-15890
▁paying	-15891
▁contingency	-15892
诊所	-15893
/63/	-15894
▁Personal	-15895
借此机会	-15896
无害环境	-15897
被认为是	-15898
在许多	-15899
特别会议的	-15900
▁prolong	-15901
▁medicines	-15902
▁networking	-15903
▁4.1	-15904
区域一级	-15905
排雷行动	-15906
联利特派团	-15907
▁pledged	-15908
买方	-15909
▁insp	-15910
分摊比额表	-15911
▁Recon	-15912
判断	-15913
韩国	-15914
dis	-15915
特别措施	-15916
20%	-15917
气氛	-15918
伊斯兰教	-15919
司法机关	-15920
异议	-15921
产品和	-15922
▁Inhuman	-15923
12.	-15924
教育和培训	-15925
法官的	-15926
urch	-15927
▁unw	-15928
向安理会	-15929
endix	-15930
安全部门改革	-15931
▁profound	-15932
主教	-15933
更具	-15934
▁leads	-15935
慈善	-15936
充分参与	-15937
咨询委员会的	-15938
▁scholars	-15939
▁Independence	-15940
的积极	-15941
马拉维	-15942
经济社会	-15943
▁borrow	-15944
▁Attorney	-15945
不断变化	-15946
备选办法	-15947
▁1540	-15948
安全和安保	-15949
▁timet	-15950
▁modified	-15951
▁performing	-15952
▁investigative	-15953
数据和	-15954
▁examining	-15955
二氧	-15956
分至	-15957
权益	-15958
部队的	-15959
rens	-15960
orth	-15961
▁notion	-15962
▁decolonization	-15963
救灾	-15964
等方面的	-15965
▁intensive	-15966
▁imposition	-15967
▁instruction	-15968
否决	-15969
传统的	-15970
▁环境署	-15971
▁AMISOM	-15972
气候变化框架公约	-15973
▁coordinators	-15974
团队	-15975
遵约	-15976
程度的	-15977
▁poly	-15978
▁spare	-15979
▁claimants	-15980
允许我	-15981
的后果	-15982
ether	-15983
▁surplus	-15984
遵照	-15985
将根据	-15986
▁inspections	-15987
可通过	-15988
优先领域	-15989
年度会议	-15990
▁compound	-15991
▁allowances	-15992
替代品	-15993
illa	-15994
生物多样	-15995
essor	-15996
▁miss	-15997
▁aggra	-15998
▁everything	-15999
140	-16000
/56/	-16001
▁ment	-16002
▁gradually	-16003
▁commentary	-16004
了该	-16005
post	-16006
▁beneficial	-16007
复杂的	-16008
seekers	-16009
▁proven	-16010
▁surrounding	-16011
想象	-16012
▁ESCWA	-16013
▁statutory	-16014
上帝	-16015
▁intimidation	-16016
▁malnutrition	-16017
无视	-16018
联阿	-16019
报告称	-16020
▁births	-16021
▁realities	-16022
木材	-16023
十年的	-16024
plan	-16025
联系起来	-16026
bery	-16027
▁$2,	-16028
月举行的	-16029
服务提供	-16030
绩效指标	-16031
概览	-16032
▁78	-16033
和设备	-16034
进行谈判	-16035
▁chec	-16036
▁fran	-16037
▁imag	-16038
▁oppos	-16039
▁acceded	-16040
的倡议	-16041
▁contradic	-16042
▁efficiently	-16043
抵达	-16044
▁战略	-16045
,2000	-16046
▁carri	-16047
粮食及农业组织	-16048
▁等	-16049
退出	-16050
▁Degrading	-16051
区内	-16052
▁该方案	-16053
▁stabilization	-16054
个本国	-16055
训研所	-16056
和水	-16057
在法律	-16058
人权情况	-16059
其目的是	-16060
▁Mean	-16061
raction	-16062
▁98	-16063
▁Overall	-16064
1-	-16065
在国内	-16066
方面的工作	-16067
还为	-16068
ums	-16069
▁该项目	-16070
▁classified	-16071
▁Agricultural	-16072
原则上	-16073
▁Bret	-16074
▁evident	-16075
▁decisive	-16076
改组	-16077
科学及文化组织	-16078
▁contractor	-16079
延期	-16080
▁18,	-16081
▁miscon	-16082
▁brain	-16083
委员会第四十	-16084
FPA	-16085
不可剥夺	-16086
被占领的	-16087
tiality	-16088
▁Private	-16089
更有	-16090
▁repair	-16091
▁clarified	-16092
经济及社会理事会第	-16093
▁satisfactory	-16094
将向	-16095
▁禁止	-16096
设备和	-16097
idad	-16098
军事行动	-16099
▁infring	-16100
列出了	-16101
▁stateless	-16102
▁countering	-16103
▁incorporating	-16104
院长	-16105
应根据	-16106
性疾病	-16107
的详细	-16108
这些人	-16109
1540	-16110
▁arrived	-16111
▁interpreted	-16112
优质	-16113
版本	-16114
olio	-16115
主管部门	-16116
▁partial	-16117
为由	-16118
论点	-16119
不确定	-16120
计划在	-16121
▁param	-16122
bul	-16123
▁resort	-16124
gi	-16125
代表以	-16126
减少灾害风险	-16127
照片	-16128
贫穷和	-16129
长时间	-16130
马达加斯	-16131
▁irrespective	-16132
检验	-16133
,19	-16134
不足以	-16135
▁coc	-16136
▁loan	-16137
所作的发言	-16138
幸存	-16139
儿童与	-16140
信息社会	-16141
通用	-16142
来解决	-16143
马达加斯加	-16144
▁plays	-16145
▁Steering	-16146
▁Operational	-16147
▁uncertainty	-16148
孤儿	-16149
要在	-16150
北方	-16151
▁story	-16152
僵局	-16153
using	-16154
▁artic	-16155
▁kilomet	-16156
七条	-16157
第六条	-16158
安全问题	-16159
是指	-16160
深信	-16161
...	-16162
联合国环境规划署	-16163
ores	-16164
party	-16165
▁profile	-16166
详尽	-16167
占领国	-16168
政治意愿	-16169
▁maximize	-16170
章节	-16171
是否可以	-16172
▁(2010	-16173
无疑	-16174
国际移徙	-16175
▁twice	-16176
▁programmatic	-16177
eop	-16178
▁arm	-16179
,2011	-16180
ourism	-16181
▁Governance	-16182
难民事务高级专员办事处	-16183
贩毒	-16184
月期间	-16185
一般临时	-16186
▁117.	-16187
承担的义务	-16188
▁piracy	-16189
▁brother	-16190
▁deficit	-16191
▁Gren	-16192
▁Study	-16193
▁Japanese	-16194
▁fulfilled	-16195
业已	-16196
形象	-16197
起到	-16198
区域内	-16199
未成年	-16200
可能导致	-16201
-2012	-16202
撒哈拉以南	-16203
▁admission	-16204
▁qualifications	-16205
▁Gulf	-16206
▁stating	-16207
▁vacancies	-16208
利害	-16209
▁Records	-16210
▁executed	-16211
作法	-16212
ille	-16213
期内	-16214
▁参与	-16215
日的信	-16216
▁locally	-16217
government	-16218
发病	-16219
文字	-16220
▁HR	-16221
型观念	-16222
并酌情	-16223
▁overl	-16224
▁comprise	-16225
挂钩	-16226
应考虑	-16227
的框架	-16228
主动行动	-16229
parts	-16230
▁weight	-16231
该问题	-16232
agen	-16233
司法制度	-16234
见上文第	-16235
▁peer	-16236
(2006)	-16237
1%	-16238
述及	-16239
并采取	-16240
成立的	-16241
▁tail	-16242
▁pupils	-16243
▁briefed	-16244
▁Recognizes	-16245
IGH	-16246
一直是	-16247
还注意到	-16248
▁Stresses	-16249
▁accorded	-16250
火器	-16251
,4	-16252
▁interviews	-16253
从中	-16254
FAO	-16255
无条件	-16256
年审议大会	-16257
▁Mediterranean	-16258
▁justification	-16259
▁operated	-16260
▁disseminated	-16261
▁deterioration	-16262
收入的	-16263
的学生	-16264
▁exh	-16265
消除贫困	-16266
Islam	-16267
淘汰	-16268
DAF	-16269
意见和	-16270
竞选	-16271
1.2	-16272
但没有	-16273
包括关于	-16274
▁seemed	-16275
代表性	-16276
各方面	-16277
建议大会	-16278
被判	-16279
▁令人	-16280
▁Additionally	-16281
不管	-16282
性骚扰	-16283
中央银行	-16284
▁Woods	-16285
▁cargo	-16286
rolling	-16287
铁路	-16288
[...]
